{
  "version": "1.0",
  "truncation": null,
  "padding": null,
  "added_tokens": [
    {
      "id": 0,
      "content": "<s>",
      "single_word": false,
      "lstrip": false,
      "rstrip": false,
      "normalized": true,
      "special": true
    },
    {
      "id": 1,
      "content": "<pad>",
      "single_word": false,
      "lstrip": false,
      "rstrip": false,
      "normalized": true,
      "special": true
    },
    {
      "id": 2,
      "content": "</s>",
      "single_word": false,
      "lstrip": false,
      "rstrip": false,
      "normalized": true,
      "special": true
    },
    {
      "id": 3,
      "content": "<unk>",
      "single_word": false,
      "lstrip": false,
      "rstrip": false,
      "normalized": true,
      "special": true
    },
    {
      "id": 4,
      "content": "<mask>",
      "single_word": false,
      "lstrip": false,
      "rstrip": false,
      "normalized": false,
      "special": true
    }
  ],
  "normalizer": null,
  "pre_tokenizer": {
    "type": "ByteLevel",
    "add_prefix_space": false,
    "trim_offsets": true,
    "use_regex": true
  },
  "post_processor": {
    "type": "ByteLevel",
    "add_prefix_space": true,
    "trim_offsets": false,
    "use_regex": true
  },
  "decoder": {
    "type": "ByteLevel",
    "add_prefix_space": true,
    "trim_offsets": true,
    "use_regex": true
  },
  "model": {
    "type": "BPE",
    "dropout": null,
    "unk_token": null,
    "continuing_subword_prefix": "",
    "end_of_word_suffix": "",
    "fuse_unk": false,
    "byte_fallback": false,
    "ignore_merges": false,
    "vocab": {
      "<s>": 0,
      "<pad>": 1,
      "</s>": 2,
      "<unk>": 3,
      "<mask>": 4,
      "!": 5,
      "\"": 6,
      "#": 7,
      "$": 8,
      "%": 9,
      "&": 10,
      "'": 11,
      "(": 12,
      ")": 13,
      "*": 14,
      "+": 15,
      ",": 16,
      "-": 17,
      ".": 18,
      "/": 19,
      "0": 20,
      "1": 21,
      "2": 22,
      "3": 23,
      "4": 24,
      "5": 25,
      "6": 26,
      "7": 27,
      "8": 28,
      "9": 29,
      ":": 30,
      ";": 31,
      "<": 32,
      "=": 33,
      ">": 34,
      "?": 35,
      "@": 36,
      "A": 37,
      "B": 38,
      "C": 39,
      "D": 40,
      "E": 41,
      "F": 42,
      "G": 43,
      "H": 44,
      "I": 45,
      "J": 46,
      "K": 47,
      "L": 48,
      "M": 49,
      "N": 50,
      "O": 51,
      "P": 52,
      "Q": 53,
      "R": 54,
      "S": 55,
      "T": 56,
      "U": 57,
      "V": 58,
      "W": 59,
      "X": 60,
      "Y": 61,
      "Z": 62,
      "[": 63,
      "\\": 64,
      "]": 65,
      "^": 66,
      "_": 67,
      "a": 68,
      "b": 69,
      "c": 70,
      "d": 71,
      "e": 72,
      "f": 73,
      "g": 74,
      "h": 75,
      "i": 76,
      "j": 77,
      "k": 78,
      "l": 79,
      "m": 80,
      "n": 81,
      "o": 82,
      "p": 83,
      "q": 84,
      "r": 85,
      "s": 86,
      "t": 87,
      "u": 88,
      "v": 89,
      "w": 90,
      "x": 91,
      "y": 92,
      "z": 93,
      "|": 94,
      "~": 95,
      "¡": 96,
      "¢": 97,
      "£": 98,
      "¤": 99,
      "¥": 100,
      "¦": 101,
      "§": 102,
      "¨": 103,
      "©": 104,
      "ª": 105,
      "«": 106,
      "¬": 107,
      "®": 108,
      "¯": 109,
      "°": 110,
      "±": 111,
      "²": 112,
      "³": 113,
      "´": 114,
      "µ": 115,
      "¶": 116,
      "·": 117,
      "¸": 118,
      "¹": 119,
      "º": 120,
      "»": 121,
      "¼": 122,
      "½": 123,
      "¾": 124,
      "¿": 125,
      "Â": 126,
      "Ã": 127,
      "Ä": 128,
      "Å": 129,
      "Æ": 130,
      "Ç": 131,
      "È": 132,
      "É": 133,
      "Ê": 134,
      "Ë": 135,
      "Ì": 136,
      "Í": 137,
      "Î": 138,
      "Ï": 139,
      "Ð": 140,
      "Ñ": 141,
      "Ò": 142,
      "Ó": 143,
      "Ô": 144,
      "Õ": 145,
      "Ö": 146,
      "×": 147,
      "Ø": 148,
      "Ù": 149,
      "Ú": 150,
      "Û": 151,
      "Ü": 152,
      "Ý": 153,
      "Þ": 154,
      "à": 155,
      "á": 156,
      "â": 157,
      "ã": 158,
      "ä": 159,
      "å": 160,
      "æ": 161,
      "ç": 162,
      "è": 163,
      "é": 164,
      "ê": 165,
      "ë": 166,
      "ì": 167,
      "í": 168,
      "ï": 169,
      "ð": 170,
      "Ċ": 171,
      "Ġ": 172,
      "Ģ": 173,
      "ģ": 174,
      "Ĥ": 175,
      "ĥ": 176,
      "Ħ": 177,
      "ħ": 178,
      "Ĩ": 179,
      "ĩ": 180,
      "Ī": 181,
      "ī": 182,
      "Ĭ": 183,
      "ĭ": 184,
      "Į": 185,
      "į": 186,
      "İ": 187,
      "ı": 188,
      "Ĳ": 189,
      "ĳ": 190,
      "Ĵ": 191,
      "ĵ": 192,
      "Ķ": 193,
      "ķ": 194,
      "ĸ": 195,
      "Ĺ": 196,
      "ĺ": 197,
      "Ļ": 198,
      "ļ": 199,
      "Ľ": 200,
      "ľ": 201,
      "Ŀ": 202,
      "ŀ": 203,
      "Ł": 204,
      "ł": 205,
      "Ń": 206,
      "Ġd": 207,
      "Ã©": 208,
      "es": 209,
      "Ġl": 210,
      "en": 211,
      "on": 212,
      "Ġp": 213,
      "Ġde": 214,
      "an": 215,
      "Ġs": 216,
      "Ġc": 217,
      "re": 218,
      "Ġa": 219,
      "ou": 220,
      "er": 221,
      "ai": 222,
      "qu": 223,
      "ti": 224,
      "ent": 225,
      "Ġm": 226,
      "is": 227,
      "ar": 228,
      "in": 229,
      "le": 230,
      "et": 231,
      "un": 232,
      "te": 233,
      "Ġla": 234,
      "ur": 235,
      "Ġqu": 236,
      "ĠÃ": 237,
      "Ġt": 238,
      "Ġle": 239,
      "Ġf": 240,
      "or": 241,
      "il": 242,
      "Ġn": 243,
      "ĠÃł": 244,
      "it": 245,
      "Ġet": 246,
      "our": 247,
      "Ġv": 248,
      "Ġun": 249,
      "Ġen": 250,
      "om": 251,
      "tion": 252,
      "Ġr": 253,
      "el": 254,
      "Ã¨": 255,
      "al": 256,
      "us": 257,
      "ĠL": 258,
      "as": 259,
      "Ġles": 260,
      "Ġpr": 261,
      "Ġdes": 262,
      "est": 263,
      "ant": 264,
      "ment": 265,
      "ont": 266,
      "ce": 267,
      "ans": 268,
      "ĠC": 269,
      "ĠÃ©": 270,
      "Ġb": 271,
      "Ġau": 272,
      "ch": 273,
      "ri": 274,
      "Ġdu": 275,
      "ait": 276,
      "au": 277,
      "me": 278,
      "ais": 279,
      "Ġpar": 280,
      "Ġj": 281,
      "at": 282,
      "ne": 283,
      "Ġ\"": 284,
      "Ã©s": 285,
      "eu": 286,
      "oi": 287,
      "li": 288,
      "ve": 289,
      "ĠM": 290,
      "ation": 291,
      "ĠdÃ©": 292,
      "Ġg": 293,
      "Ġpour": 294,
      "ĠS": 295,
      "se": 296,
      "ci": 297,
      "ag": 298,
      "Ġre": 299,
      "que": 300,
      "Ġque": 301,
      "si": 302,
      "di": 303,
      "Ġ1": 304,
      "ĠP": 305,
      "Ã©e": 306,
      "Ġdans": 307,
      "Ġcom": 308,
      "de": 309,
      "Ġune": 310,
      "res": 311,
      "tÃ©": 312,
      "Ġpl": 313,
      "Ġest": 314,
      "ra": 315,
      "ous": 316,
      "ĠA": 317,
      "ol": 318,
      "Ġqui": 319,
      "Ġcon": 320,
      "Ġch": 321,
      "Ġpas": 322,
      "Ġse": 323,
      "mp": 324,
      "tre": 325,
      "Ġin": 326,
      "os": 327,
      "ĠD": 328,
      "Ġ2": 329,
      "Ġsur": 330,
      "ie": 331,
      "ĠE": 332,
      "ĠB": 333,
      "ro": 334,
      "Ġh": 335,
      "Ġpro": 336,
      "ĠJ": 337,
      "ers": 338,
      "Ġ(": 339,
      "Ãª": 340,
      "ĠI": 341,
      "am": 342,
      "ain": 343,
      "ran": 344,
      "Ġe": 345,
      "elle": 346,
      "ui": 347,
      "ĠrÃ©": 348,
      "ac": 349,
      "ff": 350,
      "ĠT": 351,
      "end": 352,
      "pp": 353,
      "ab": 354,
      "ouv": 355,
      "les": 356,
      "Ġplus": 357,
      "Ã¨re": 358,
      "Ġav": 359,
      "urs": 360,
      "Ġil": 361,
      "Ġo": 362,
      "aire": 363,
      "ir": 364,
      "ons": 365,
      "ĠF": 366,
      "ĠLe": 367,
      "Ã¨s": 368,
      "ĠR": 369,
      "pr": 370,
      "Ġne": 371,
      "ter": 372,
      "vec": 373,
      "ale": 374,
      "Ġson": 375,
      "Ġce": 376,
      "Ġdi": 377,
      "ois": 378,
      "..": 379,
      "itÃ©": 380,
      "Ġ20": 381,
      "ort": 382,
      "Ġavec": 383,
      "Ã©r": 384,
      "ul": 385,
      "ĠN": 386,
      "ien": 387,
      "onn": 388,
      "ĠIl": 389,
      "ue": 390,
      "ig": 391,
      "and": 392,
      "Ġtr": 393,
      "ĠG": 394,
      "ier": 395,
      "pe": 396,
      "ot": 397,
      "Ġsa": 398,
      "oir": 399,
      "uis": 400,
      "ic": 401,
      "out": 402,
      "tu": 403,
      "ĠLa": 404,
      "mb": 405,
      "age": 406,
      "ille": 407,
      "une": 408,
      "ux": 409,
      "rÃ©": 410,
      "id": 411,
      "ge": 412,
      "ut": 413,
      "ette": 414,
      "oin": 415,
      "Ġan": 416,
      "ĠV": 417,
      "tr": 418,
      "che": 419,
      "ques": 420,
      "Ġje": 421,
      "av": 422,
      "Ġex": 423,
      "Ã©es": 424,
      "eux": 425,
      "Ġsont": 426,
      "Ã©ri": 427,
      "ad": 428,
      "ĠO": 429,
      "ĠÃ©t": 430,
      "im": 431,
      "ist": 432,
      "ĠÃ©tÃ©": 433,
      "ction": 434,
      "Ã©c": 435,
      "ĠH": 436,
      "Ġ19": 437,
      "ors": 438,
      "lle": 439,
      "Ã©t": 440,
      "ub": 441,
      "Ã´": 442,
      "entre": 443,
      "Ġont": 444,
      "Ã§": 445,
      "00": 446,
      "oc": 447,
      "ati": 448,
      "ĠLes": 449,
      "Ġou": 450,
      "Ġaux": 451,
      "ard": 452,
      "Ġmais": 453,
      "ay": 454,
      "ĠJe": 455,
      "ens": 456,
      "ique": 457,
      "op": 458,
      "Ã©n": 459,
      "Ġcont": 460,
      "iv": 461,
      "aux": 462,
      "ion": 463,
      "ure": 464,
      "ap": 465,
      "Ãł": 466,
      "Ġsi": 467,
      "ert": 468,
      "\",": 469,
      "mi": 470,
      "ence": 471,
      "Ġ-": 472,
      "ance": 473,
      "mes": 474,
      "ord": 475,
      "ine": 476,
      "Ġac": 477,
      "Ġte": 478,
      "Ġmar": 479,
      "Ġdeux": 480,
      "Ġser": 481,
      "Ġfait": 482,
      "aient": 483,
      "Ġcomp": 484,
      "ours": 485,
      "ĠU": 486,
      "Ġpeu": 487,
      "oy": 488,
      "Ġcomm": 489,
      "Ġ?": 490,
      "Ġparti": 491,
      "Ġ201": 492,
      "he": 493,
      "ise": 494,
      "Ġal": 495,
      "Ġses": 496,
      "ond": 497,
      "lÃ©": 498,
      "ces": 499,
      "ĠEn": 500,
      "Ġme": 501,
      "teur": 502,
      "Ġcette": 503,
      "Ġcomme": 504,
      "Ġsu": 505,
      "Ġmon": 506,
      "Ġpre": 507,
      "Ġar": 508,
      "Ġtout": 509,
      "ants": 510,
      "ace": 511,
      "prÃ¨s": 512,
      "ations": 513,
      "Ġdev": 514,
      "...": 515,
      "ussi": 516,
      "oit": 517,
      "ob": 518,
      "aut": 519,
      "ct": 520,
      "Ġcons": 521,
      "Ãªme": 522,
      "og": 523,
      "eur": 524,
      "ĠprÃ©s": 525,
      "Ġtra": 526,
      "ĠdÃ©c": 527,
      "Ġy": 528,
      "um": 529,
      "Ġfor": 530,
      "Ġon": 531,
      "Ġfin": 532,
      "Ġvous": 533,
      "oli": 534,
      "Ġ3": 535,
      "ĠCh": 536,
      "aine": 537,
      "ill": 538,
      "tes": 539,
      "Ã®": 540,
      "app": 541,
      "Ġi": 542,
      "ĠK": 543,
      "ore": 544,
      "Ġlui": 545,
      "Ġnous": 546,
      "tin": 547,
      "Ġdis": 548,
      "Ġapp": 549,
      "Ġper": 550,
      "able": 551,
      "oup": 552,
      "Ġentre": 553,
      "ing": 554,
      "ten": 555,
      "aires": 556,
      "Ġas": 557,
      "ĠQ": 558,
      "uit": 559,
      "Ġmil": 560,
      "Ġleur": 561,
      "rois": 562,
      "ĠFran": 563,
      "Ġann": 564,
      "ib": 565,
      "Ã¢": 566,
      "Ġgr": 567,
      "sion": 568,
      "ni": 569,
      "Ġder": 570,
      "par": 571,
      "Ã©g": 572,
      "ess": 573,
      "Ġans": 574,
      "ouver": 575,
      "ts": 576,
      "ĠW": 577,
      "),": 578,
      "Ġnom": 579,
      "Ġtou": 580,
      "oci": 581,
      "oire": 582,
      "onne": 583,
      "Ġat": 584,
      "tat": 585,
      "Ġaut": 586,
      "Ã¨me": 587,
      "Ġavait": 588,
      "endre": 589,
      "ass": 590,
      "ouve": 591,
      "Ã©d": 592,
      "man": 593,
      "Ġaussi": 594,
      "all": 595,
      "ail": 596,
      "ang": 597,
      "ĠPar": 598,
      "Ġbien": 599,
      "ex": 600,
      "ubli": 601,
      "ĠÃª": 602,
      "st": 603,
      "elles": 604,
      "Ġelle": 605,
      "ments": 606,
      "onc": 607,
      "Ġfaire": 608,
      "Ġgran": 609,
      "ĠmÃªme": 610,
      "ate": 611,
      "Ã©v": 612,
      "ec": 613,
      "min": 614,
      "Ġter": 615,
      "alis": 616,
      "\".": 617,
      "ici": 618,
      "tif": 619,
      "Ġmin": 620,
      "puis": 621,
      ").": 622,
      "Ġche": 623,
      "Ġpers": 624,
      "Ã¹": 625,
      "Ġcl": 626,
      "ĠÃ©tait": 627,
      "Ġces": 628,
      "tique": 629,
      "ĠÃ©c": 630,
      "ourn": 631,
      "Ġam": 632,
      "Ġtrav": 633,
      "eau": 634,
      "ler": 635,
      "Ã»": 636,
      "use": 637,
      "ĠÃªtre": 638,
      "ĠQu": 639,
      "Ġma": 640,
      "Ġjus": 641,
      "vi": 642,
      "qui": 643,
      "tis": 644,
      "ĠMar": 645,
      "Ġexp": 646,
      "Ġcar": 647,
      "alement": 648,
      "amp": 649,
      "Ġtu": 650,
      "ong": 651,
      "ĠaprÃ¨s": 652,
      "Ġ4": 653,
      "Ġes": 654,
      "bre": 655,
      "for": 656,
      "Ġimp": 657,
      "Ġvi": 658,
      "ente": 659,
      "Ġdire": 660,
      "Ġinter": 661,
      "Ġ200": 662,
      "ĠoÃ¹": 663,
      "Ġquel": 664,
      "ĠMais": 665,
      "ĠOn": 666,
      "Ġrec": 667,
      "Ġti": 668,
      "ph": 669,
      "Ġpe": 670,
      "Ġsou": 671,
      "Ġju": 672,
      "Ã©m": 673,
      "ante": 674,
      "ĠrÃ©s": 675,
      "Ġpoli": 676,
      "Ġcontre": 677,
      "tions": 678,
      "rit": 679,
      "mbre": 680,
      "od": 681,
      "Ã¨res": 682,
      "Ġenc": 683,
      "ose": 684,
      "Ġ5": 685,
      "lement": 686,
      "anc": 687,
      "ents": 688,
      "ils": 689,
      "Ġres": 690,
      "otre": 691,
      "Ġren": 692,
      "oul": 693,
      "mps": 694,
      "ĠdÃ©p": 695,
      "orte": 696,
      "uc": 697,
      "Ãªte": 698,
      "ĠtrÃ¨s": 699,
      "Ġdepuis": 700,
      "Ġpremi": 701,
      "Ġtrois": 702,
      "Ġpubli": 703,
      "ĠEt": 704,
      "Ġacc": 705,
      "jet": 706,
      "Ġmilli": 707,
      "nement": 708,
      "Ġprop": 709,
      "Ġpeut": 710,
      "ven": 711,
      "ole": 712,
      "iste": 713,
      "ves": 714,
      "ĠDe": 715,
      "rer": 716,
      "ains": 717,
      "Ġfr": 718,
      "ver": 719,
      "ales": 720,
      "Ġpay": 721,
      "Ġdit": 722,
      "Ġdont": 723,
      "Ġfran": 724,
      "Ġconf": 725,
      "Ġman": 726,
      "nes": 727,
      "Ġsans": 728,
      "enti": 729,
      "oins": 730,
      "ĠUn": 731,
      "ĠCe": 732,
      "ĠdÃ©f": 733,
      "ĠrÃ©g": 734,
      "Ġjou": 735,
      "oll": 736,
      "ins": 737,
      "ta": 738,
      "cher": 739,
      "cu": 740,
      "oupe": 741,
      "Ġsec": 742,
      "Ġw": 743,
      "Ġpass": 744,
      "enne": 745,
      "ture": 746,
      "iss": 747,
      "Ġ!": 748,
      "ĠÃ§": 749,
      "mÃ©": 750,
      "Ġli": 751,
      "mier": 752,
      "elon": 753,
      "Ġlors": 754,
      "Ġpos": 755,
      "cip": 756,
      "ĠÃ§a": 757,
      "omme": 758,
      "Ġ\",": 759,
      "Ã§ais": 760,
      "ĠElle": 761,
      "osi": 762,
      "ĠFrance": 763,
      "uite": 764,
      "itÃ©s": 765,
      "Ġ18": 766,
      "Ġencore": 767,
      "met": 768,
      "Ã©p": 769,
      "Ġpuis": 770,
      "quÃ©": 771,
      "Ġad": 772,
      "ĠdÃ©b": 773,
      "ann": 774,
      "Ġthe": 775,
      "Ġdiff": 776,
      "ense": 777,
      "Ġavant": 778,
      "Ġconc": 779,
      "Ġob": 780,
      "Ġco": 781,
      "Ã©l": 782,
      "endant": 783,
      "Ġgrand": 784,
      "ĠÃ©g": 785,
      "Ġseu": 786,
      "Ġpersonn": 787,
      "aiss": 788,
      "itu": 789,
      "rait": 790,
      "agn": 791,
      "Ġcel": 792,
      "em": 793,
      "Ġsous": 794,
      "ĠPour": 795,
      "ĠprÃ©sid": 796,
      "ĠgÃ©n": 797,
      "ages": 798,
      "Ġor": 799,
      "Ġ6": 800,
      "Ġavoir": 801,
      "ign": 802,
      "Ġaff": 803,
      "aison": 804,
      "ĠAl": 805,
      "insi": 806,
      "Ġpoin": 807,
      "Ġfois": 808,
      "Ġalors": 809,
      "Ġtous": 810,
      "ble": 811,
      "Ġent": 812,
      "Ġrepr": 813,
      "Ã©b": 814,
      "Ġpays": 815,
      "tement": 816,
      "Ġass": 817,
      "lis": 818,
      "Ġsoci": 819,
      "ĠAn": 820,
      "asse": 821,
      "ich": 822,
      "Ġcr": 823,
      "Ġpremier": 824,
      "Ãªtre": 825,
      "oute": 826,
      "Ġmal": 827,
      "Ġrapp": 828,
      "ures": 829,
      "ĠrÃ©p": 830,
      "mis": 831,
      "Ġeff": 832,
      "vent": 833,
      "Ġsp": 834,
      "uer": 835,
      "if": 836,
      "Ġtemps": 837,
      "Ġst": 838,
      "are": 839,
      "Ġsy": 840,
      "gn": 841,
      "mer": 842,
      "Ġdonn": 843,
      "Ġcour": 844,
      "Ġcommun": 845,
      "Ġmonde": 846,
      "ĠAu": 847,
      "emp": 848,
      "Ġsc": 849,
      "ues": 850,
      "aÃ®": 851,
      "agne": 852,
      "Ġmat": 853,
      "Ġleurs": 854,
      "ats": 855,
      "ĠUne": 856,
      "Ġva": 857,
      "aines": 858,
      "ĠfranÃ§ais": 859,
      "omp": 860,
      "Ġnouv": 861,
      "Ġeur": 862,
      "Ġpeti": 863,
      "chÃ©": 864,
      "ĠmÃ©": 865,
      "mand": 866,
      "roit": 867,
      "Ġsuis": 868,
      "olog": 869,
      "Ġprof": 870,
      "Ġmoins": 871,
      "adi": 872,
      "esse": 873,
      "Ġmont": 874,
      "Ġph": 875,
      "Ã©ric": 876,
      "ĠpremiÃ¨re": 877,
      "rop": 878,
      "Ġab": 879,
      "Ġainsi": 880,
      "ĠÃ©v": 881,
      "Ġnombre": 882,
      "Ġpart": 883,
      "Ġvie": 884,
      "Ġ7": 885,
      "alitÃ©": 886,
      "Ġgouver": 887,
      "aille": 888,
      "gan": 889,
      "Ġth": 890,
      "ieurs": 891,
      "Ġprod": 892,
      "Ġnouve": 893,
      "teurs": 894,
      "Ġconn": 895,
      "Ġtrans": 896,
      "ĠdÃ©s": 897,
      "000": 898,
      "els": 899,
      "uti": 900,
      "Ġaur": 901,
      "ĠcrÃ©": 902,
      "Ġenf": 903,
      "ĠÃ©galement": 904,
      "vis": 905,
      "titu": 906,
      "Ġderni": 907,
      "Ã©tait": 908,
      "Ã´t": 909,
      "Ġfil": 910,
      "ari": 911,
      "ric": 912,
      "jours": 913,
      "nier": 914,
      "Un": 915,
      "Ġ8": 916,
      "cl": 917,
      "Ġprin": 918,
      "omb": 919,
      "iÃ¨me": 920,
      "Ġvis": 921,
      "Ġtravail": 922,
      "ĠDans": 923,
      "Ġsera": 924,
      "tres": 925,
      "Ã¯": 926,
      "onom": 927,
      "Ġcap": 928,
      "Ġmes": 929,
      "Ġils": 930,
      "Ġfer": 931,
      "istre": 932,
      "Ġbr": 933,
      "Ġins": 934,
      "ach": 935,
      "Ġoff": 936,
      "aint": 937,
      "ern": 938,
      "Ġfem": 939,
      "Ġcert": 940,
      "ĠprÃ©": 941,
      "Ġplace": 942,
      "ĠÃī": 943,
      "Ã©tÃ©": 944,
      "tats": 945,
      "Ġnot": 946,
      "Ġpouv": 947,
      "opp": 948,
      "istes": 949,
      "one": 950,
      "cien": 951,
      "ĠTu": 952,
      "Ġtoujours": 953,
      "ĠdÃ©j": 954,
      "ix": 955,
      "ud": 956,
      "iques": 957,
      "tiv": 958,
      "Ġmois": 959,
      "Ġmoi": 960,
      "Ġdernier": 961,
      "acc": 962,
      "Ġk": 963,
      "Ġcontr": 964,
      "eure": 965,
      "Ã©ra": 966,
      "enir": 967,
      "Ġlong": 968,
      "ĠY": 969,
      "Ġcoup": 970,
      "Ġni": 971,
      "rib": 972,
      "Ġjusqu": 973,
      "Ġenv": 974,
      "ĠprÃ©c": 975,
      "ions": 976,
      "Ġmain": 977,
      "Ãī": 978,
      "ĠprÃ©sident": 979,
      "Ġtoute": 980,
      "ĠIn": 981,
      "Ġrest": 982,
      "Ġcin": 983,
      "quipe": 984,
      "ĠÃ©le": 985,
      "Ġgroupe": 986,
      "Ġindi": 987,
      "Ġbeau": 988,
      "Ġcor": 989,
      "Ġcol": 990,
      "Ġplusieurs": 991,
      "mble": 992,
      "erv": 993,
      "Ġsitu": 994,
      "Ġvers": 995,
      "amment": 996,
      "az": 997,
      "Ġnon": 998,
      "lig": 999,
      "ĠdÃ©jÃł": 1000,
      "Ġpris": 1001,
      "ov": 1002,
      "Ġmet": 1003,
      "igne": 1004,
      "Ġca": 1005,
      "Ġ10": 1006,
      "Ġcan": 1007,
      "rai": 1008,
      "uction": 1009,
      "Ġmis": 1010,
      "Ġfa": 1011,
      "Ġfam": 1012,
      "cid": 1013,
      "cep": 1014,
      "olu": 1015,
      "Ġgouvernement": 1016,
      "Ġnation": 1017,
      "ak": 1018,
      "Ã©lÃ©": 1019,
      "ourd": 1020,
      "ow": 1021,
      "lÃ¨": 1022,
      "ĠParis": 1023,
      "Ġsoit": 1024,
      "Ġmort": 1025,
      "ell": 1026,
      "ite": 1027,
      "Ġsal": 1028,
      "rÃª": 1029,
      "Ġdonc": 1030,
      "Ġpartie": 1031,
      "Ġretr": 1032,
      "ru": 1033,
      "ies": 1034,
      "ĠSi": 1035,
      "rie": 1036,
      "era": 1037,
      "ĠannÃ©es": 1038,
      "Ġselon": 1039,
      "Ġquat": 1040,
      "ĠdÃ©cl": 1041,
      "Ġto": 1042,
      "ĠÃĢ": 1043,
      "Ġjeu": 1044,
      "Ġatt": 1045,
      "ommes": 1046,
      "Ġemp": 1047,
      "Ġautres": 1048,
      "Ġlib": 1049,
      "art": 1050,
      "Ġfut": 1051,
      "Ġjam": 1052,
      "Ã©ration": 1053,
      "ire": 1054,
      "ris": 1055,
      "Åĵ": 1056,
      "dre": 1057,
      "ganis": 1058,
      "Ġ15": 1059,
      "att": 1060,
      "fin": 1061,
      "orti": 1062,
      "oule": 1063,
      "Ġquelques": 1064,
      "Ġmus": 1065,
      "Ġsem": 1066,
      "ateur": 1067,
      "Ġeu": 1068,
      "Ġag": 1069,
      "arg": 1070,
      "osition": 1071,
      "cont": 1072,
      "omm": 1073,
      "rent": 1074,
      "ches": 1075,
      "vre": 1076,
      "Ġcas": 1077,
      "erg": 1078,
      "Ġmen": 1079,
      "Ġ9": 1080,
      "des": 1081,
      "Ã¨ne": 1082,
      "Ġjourn": 1083,
      "Ġvic": 1084,
      "ath": 1085,
      "lus": 1086,
      "aur": 1087,
      "Ġno": 1088,
      "Ġgar": 1089,
      "Ġret": 1090,
      "riv": 1091,
      "ĠVous": 1092,
      "Ġnouveau": 1093,
      "imp": 1094,
      "Ġpermet": 1095,
      "Ġ199": 1096,
      "Ġministre": 1097,
      "Ġrep": 1098,
      "form": 1099,
      "Ġnotre": 1100,
      "ĠCette": 1101,
      "Ġmillions": 1102,
      "ton": 1103,
      "erc": 1104,
      "Ã©ral": 1105,
      "Ġim": 1106,
      "Ġbas": 1107,
      "ĠdÃ©v": 1108,
      "ĠamÃ©ric": 1109,
      "Ġ17": 1110,
      "ode": 1111,
      "ah": 1112,
      "Ġfond": 1113,
      "ĠprÃ©sent": 1114,
      "Ġquand": 1115,
      "ĠlÃł": 1116,
      "tiques": 1117,
      "Ġdisp": 1118,
      "ĠIls": 1119,
      "ĠJean": 1120,
      "Ġpublic": 1121,
      "ĠprÃ©v": 1122,
      "ĠDes": 1123,
      "Ġville": 1124,
      "Ġprojet": 1125,
      "Ġjour": 1126,
      "ĠÃ©p": 1127,
      "Ġsui": 1128,
      "Ġpersonnes": 1129,
      "Ġautre": 1130,
      "exp": 1131,
      "ed": 1132,
      "Ġfaut": 1133,
      "ient": 1134,
      "Ġesp": 1135,
      "Ġjamais": 1136,
      "th": 1137,
      "ctions": 1138,
      "opÃ©": 1139,
      "Ã»t": 1140,
      "ables": 1141,
      "ellement": 1142,
      "Ġsep": 1143,
      "ĠdÃ©m": 1144,
      "oix": 1145,
      "ili": 1146,
      "Ġof": 1147,
      "coup": 1148,
      "Ġremp": 1149,
      "ron": 1150,
      "ature": 1151,
      "Ġnotamment": 1152,
      "hui": 1153,
      "ange": 1154,
      "Ġsoir": 1155,
      "ĠNous": 1156,
      "ieux": 1157,
      "riÃ¨re": 1158,
      "ivers": 1159,
      "Ġprog": 1160,
      "Ġreg": 1161,
      "Ġchez": 1162,
      "ade": 1163,
      "tionn": 1164,
      "ĠsÃ©": 1165,
      "pect": 1166,
      "ĠSaint": 1167,
      "Ġdoit": 1168,
      "quer": 1169,
      "iens": 1170,
      "iÃ¨re": 1171,
      "ateurs": 1172,
      "Ġcours": 1173,
      "Ġmatch": 1174,
      "vers": 1175,
      "Ġexpli": 1176,
      "Ġjours": 1177,
      "eut": 1178,
      "ĠdÃ©but": 1179,
      "Ġbl": 1180,
      "ress": 1181,
      "aque": 1182,
      "utilis": 1183,
      "aff": 1184,
      "ide": 1185,
      "Ġport": 1186,
      "Ġtour": 1187,
      "Ġ\".": 1188,
      "jourd": 1189,
      "vez": 1190,
      "dic": 1191,
      "Ġdroit": 1192,
      "ile": 1193,
      "iti": 1194,
      "Ġform": 1195,
      "per": 1196,
      "ram": 1197,
      "Ã©li": 1198,
      "Ġvrai": 1199,
      "ug": 1200,
      "ĠTh": 1201,
      "Ã©rie": 1202,
      "Ġver": 1203,
      "ars": 1204,
      "ĠCan": 1205,
      "sement": 1206,
      "ande": 1207,
      "illes": 1208,
      "la": 1209,
      "cc": 1210,
      "Ġcompr": 1211,
      "Ġvol": 1212,
      "ok": 1213,
      "antes": 1214,
      "ĠNe": 1215,
      "ances": 1216,
      "fois": 1217,
      "onde": 1218,
      "lu": 1219,
      "ĠcÃ´": 1220,
      "Ġcent": 1221,
      "Ġpolitique": 1222,
      "voir": 1223,
      "Ġbeaucoup": 1224,
      "Ġrencont": 1225,
      "Ġlieu": 1226,
      "ger": 1227,
      "Ġnouvelle": 1228,
      "Ġrien": 1229,
      "nation": 1230,
      "Ġ12": 1231,
      "uses": 1232,
      "Ġfais": 1233,
      "Ġdur": 1234,
      "ĠAr": 1235,
      "Ġquatre": 1236,
      "ĠreprÃ©s": 1237,
      "Ġbon": 1238,
      "enn": 1239,
      "tant": 1240,
      "ĠQuÃ©b": 1241,
      "int": 1242,
      "iter": 1243,
      "autres": 1244,
      "mbl": 1245,
      "ĠrÃ©gion": 1246,
      "Ġvoir": 1247,
      "Ġmom": 1248,
      "Ġprincip": 1249,
      "Ġface": 1250,
      "ope": 1251,
      "Ġhab": 1252,
      "Ġprob": 1253,
      "rier": 1254,
      "Ġimport": 1255,
      "ĠRe": 1256,
      "ĠX": 1257,
      "Ġgrande": 1258,
      "Ġrel": 1259,
      "Ġmati": 1260,
      "Ã´le": 1261,
      "lier": 1262,
      "Ġ16": 1263,
      "ĠCar": 1264,
      "aisse": 1265,
      "Ġinc": 1266,
      "Ġques": 1267,
      "Ġsais": 1268,
      "Ġchef": 1269,
      "ĠrÃ©alis": 1270,
      "orm": 1271,
      "Ġop": 1272,
      "Ġcet": 1273,
      "Ġchamp": 1274,
      "elopp": 1275,
      "Ġpop": 1276,
      "ez": 1277,
      "Ġsorti": 1278,
      "Ġpendant": 1279,
      "Ġsaison": 1280,
      "ĠMont": 1281,
      "Ġdevant": 1282,
      "ieu": 1283,
      "Ġpoint": 1284,
      "vier": 1285,
      "Ġdemand": 1286,
      "ĠeuropÃ©": 1287,
      "Ġsouv": 1288,
      "oh": 1289,
      "ĠlÃ©g": 1290,
      "Ġvoul": 1291,
      "tel": 1292,
      "tic": 1293,
      "enu": 1294,
      "ame": 1295,
      "ĠprÃ¨s": 1296,
      "Ġcond": 1297,
      "aite": 1298,
      "vement": 1299,
      "Ġnos": 1300,
      "ĠdÃ©par": 1301,
      "Ġcelui": 1302,
      "ĠBr": 1303,
      "ences": 1304,
      "Ġand": 1305,
      "Ġdou": 1306,
      "Ġporte": 1307,
      "Ġ14": 1308,
      "tier": 1309,
      "aul": 1310,
      "mande": 1311,
      "ises": 1312,
      "Ġcela": 1313,
      "ia": 1314,
      "ĠdÃ©clar": 1315,
      "ret": 1316,
      "ĠZ": 1317,
      "ĠAprÃ¨s": 1318,
      "20": 1319,
      "ĠSt": 1320,
      "ges": 1321,
      "eurs": 1322,
      "Ã©ci": 1323,
      "ĠdiffÃ©r": 1324,
      "ilitÃ©": 1325,
      "tÃ©ri": 1326,
      "aud": 1327,
      "Ġtoutes": 1328,
      "Ġfamille": 1329,
      "tenant": 1330,
      "ĠQuÃ©bec": 1331,
      "ront": 1332,
      "Ġloc": 1333,
      "Ġplan": 1334,
      "atique": 1335,
      "Ġpopul": 1336,
      "illet": 1337,
      "ital": 1338,
      "ards": 1339,
      "Ġz": 1340,
      "Ġcri": 1341,
      "Ġ0": 1342,
      "Ġ--": 1343,
      "Unis": 1344,
      "ĠÃ©taient": 1345,
      "Ġmoy": 1346,
      "Ġvotre": 1347,
      "Ġconstr": 1348,
      "Ġcamp": 1349,
      "unes": 1350,
      "endu": 1351,
      "Ġmeille": 1352,
      "Ġpi": 1353,
      "Ġsupp": 1354,
      "Ġcontin": 1355,
      "Ġcher": 1356,
      "ĠÃ©tu": 1357,
      "Ġ11": 1358,
      "Ġbut": 1359,
      "Ġ30": 1360,
      "ys": 1361,
      "Ġsol": 1362,
      "Ġouv": 1363,
      "Ġmoment": 1364,
      "ines": 1365,
      "Ġfilm": 1366,
      "istoire": 1367,
      "Ġtrop": 1368,
      "uss": 1369,
      "air": 1370,
      "Ġmai": 1371,
      "eures": 1372,
      "Ġreste": 1373,
      "Ġliv": 1374,
      "entes": 1375,
      "aise": 1376,
      "rÃ©e": 1377,
      "Ġcompte": 1378,
      "Ġmod": 1379,
      "Ġfon": 1380,
      "Ġdom": 1381,
      "mÃ©e": 1382,
      "Ġappel": 1383,
      "Ġpouvoir": 1384,
      "ke": 1385,
      "fi": 1386,
      "enc": 1387,
      "ĠMon": 1388,
      "Ġvoit": 1389,
      "arge": 1390,
      "ĠdÃ©velopp": 1391,
      "Ġ13": 1392,
      "vous": 1393,
      "anci": 1394,
      "amb": 1395,
      "ĠtÃªte": 1396,
      "Ġconse": 1397,
      "Ġall": 1398,
      "gl": 1399,
      "Ġdirec": 1400,
      "Ġcomb": 1401,
      "Ġsuite": 1402,
      "act": 1403,
      "sible": 1404,
      "ĠannÃ©e": 1405,
      "Ġcrois": 1406,
      "uerre": 1407,
      "ĠCom": 1408,
      "Ġprom": 1409,
      "Ġrapport": 1410,
      "ienne": 1411,
      "ĠspÃ©ci": 1412,
      "uel": 1413,
      "Ġ198": 1414,
      "ĠgÃ©nÃ©ral": 1415,
      "Ġcul": 1416,
      "ĠtÃ©lÃ©": 1417,
      "Ġfemme": 1418,
      "Ġcli": 1419,
      "sionn": 1420,
      "raÃ®": 1421,
      "Ġjeune": 1422,
      "Ġproch": 1423,
      "mar": 1424,
      "Ġseul": 1425,
      "ĠcÃ´tÃ©": 1426,
      "Ġind": 1427,
      "ĠrÃ©f": 1428,
      "ĠderniÃ¨re": 1429,
      "ane": 1430,
      "Ġresp": 1431,
      "Ġaj": 1432,
      "ement": 1433,
      "Ġtourn": 1434,
      "Ġutilis": 1435,
      "Ġpres": 1436,
      "Ġchose": 1437,
      "Ġcelle": 1438,
      "Ġref": 1439,
      "Ġenfants": 1440,
      "ry": 1441,
      "ust": 1442,
      "Ġvo": 1443,
      "Ġproc": 1444,
      "Ġlaiss": 1445,
      "Ġquelque": 1446,
      "lex": 1447,
      "sions": 1448,
      "Ġvendre": 1449,
      "auv": 1450,
      "Ġinf": 1451,
      "Ġauc": 1452,
      "isme": 1453,
      "Ġeffet": 1454,
      "Ġterr": 1455,
      "Ġaujourd": 1456,
      "Ġtrouv": 1457,
      "Ġorganis": 1458,
      "anvier": 1459,
      "Ġreven": 1460,
      "Ã§on": 1461,
      "Ġhomme": 1462,
      "ze": 1463,
      "ril": 1464,
      "An": 1465,
      "oncÃ©": 1466,
      "ĠreprÃ©sent": 1467,
      "Ġici": 1468,
      "uits": 1469,
      "atri": 1470,
      "Ġjuin": 1471,
      "Ġmo": 1472,
      "Ġpourrait": 1473,
      "urope": 1474,
      "Ġprov": 1475,
      "cul": 1476,
      "Ġesti": 1477,
      "usse": 1478,
      "ĠnÃ©": 1479,
      "Ã©cur": 1480,
      "Ġprendre": 1481,
      "Ġpartir": 1482,
      "ĠpÃ©ri": 1483,
      "oÃ»t": 1484,
      "ime": 1485,
      "Ġcinq": 1486,
      "ĠdeuxiÃ¨me": 1487,
      "Ġavaient": 1488,
      "Ġclub": 1489,
      "oie": 1490,
      "Ġjanvier": 1491,
      "ĠCl": 1492,
      "Ġmars": 1493,
      "autre": 1494,
      "Ġmaj": 1495,
      "Ġserv": 1496,
      "ind": 1497,
      "Ġpropos": 1498,
      "19": 1499,
      "Ã©quipe": 1500,
      "Ġpens": 1501,
      "Ġparticip": 1502,
      "Ã¨g": 1503,
      "Ġid": 1504,
      "itaire": 1505,
      "Ġfl": 1506,
      "Ġserait": 1507,
      "uire": 1508,
      "tien": 1509,
      "dition": 1510,
      "Ġinternation": 1511,
      "Ġprix": 1512,
      "oque": 1513,
      "gÃ©": 1514,
      "Ġservi": 1515,
      "Ġ000": 1516,
      "Ġbes": 1517,
      "Ġparticu": 1518,
      "tembre": 1519,
      "Ġess": 1520,
      "ax": 1521,
      "Ã©rÃ©": 1522,
      "rand": 1523,
      "Ġpoints": 1524,
      "ĠÃ©conom": 1525,
      "Ġceux": 1526,
      "ierre": 1527,
      "Ġsemaine": 1528,
      "sid": 1529,
      "ĠdÃ©ce": 1530,
      "Ġgens": 1531,
      "Ġbat": 1532,
      "Ã§ois": 1533,
      "Ġpu": 1534,
      "ĠSelon": 1535,
      "quoi": 1536,
      "obre": 1537,
      "ps": 1538,
      "esp": 1539,
      "ali": 1540,
      "ack": 1541,
      "lic": 1542,
      "prise": 1543,
      "inter": 1544,
      "veau": 1545,
      "ices": 1546,
      "ĠCon": 1547,
      "undi": 1548,
      "Ġtant": 1549,
      "Ġappar": 1550,
      "ĠrÃ©c": 1551,
      "Ġcir": 1552,
      "aÃ®t": 1553,
      "Ã¨rement": 1554,
      "Ġchaque": 1555,
      "Ġseptembre": 1556,
      "suite": 1557,
      "ĠPh": 1558,
      "ionn": 1559,
      "Ġsign": 1560,
      "Ġveut": 1561,
      "Ġ197": 1562,
      "Ġfort": 1563,
      "ourg": 1564,
      "ĠsiÃ¨": 1565,
      "ĠSon": 1566,
      "Ġperd": 1567,
      "Ġaurait": 1568,
      "Ġheures": 1569,
      "ĠpÃ¨re": 1570,
      "orter": 1571,
      "Ġsub": 1572,
      "annÃ©e": 1573,
      "ĠSh": 1574,
      "Ġmondi": 1575,
      "Ġven": 1576,
      "avoir": 1577,
      "Ġtitre": 1578,
      "rÃ©s": 1579,
      "ada": 1580,
      "erci": 1581,
      "vembre": 1582,
      "ĠintÃ©": 1583,
      "Ġpetit": 1584,
      "Ġrespons": 1585,
      "Ġbou": 1586,
      "oss": 1587,
      "Ġis": 1588,
      "Ġsour": 1589,
      "Ġviv": 1590,
      "Ġple": 1591,
      "redi": 1592,
      "Ġcomment": 1593,
      "Ġraison": 1594,
      "yp": 1595,
      "ĠdÃ©cembre": 1596,
      "die": 1597,
      "ision": 1598,
      "Ġrou": 1599,
      "Ġvu": 1600,
      "Ġ_": 1601,
      "ori": 1602,
      "aÃ¯": 1603,
      "Ġvoy": 1604,
      "be": 1605,
      "Ġjuillet": 1606,
      "Ġbar": 1607,
      "Ġoct": 1608,
      "illi": 1609,
      "ĠChar": 1610,
      "lection": 1611,
      "cup": 1612,
      "Ġcentre": 1613,
      "ortÃ©": 1614,
      "less": 1615,
      "oles": 1616,
      "Ġcoll": 1617,
      "In": 1618,
      "Ġ25": 1619,
      "Ã¨tres": 1620,
      "ribu": 1621,
      "Ġdiman": 1622,
      "Ġnovembre": 1623,
      "iron": 1624,
      "grÃ©": 1625,
      "co": 1626,
      "ercredi": 1627,
      "oph": 1628,
      "Ġveux": 1629,
      "Ġsix": 1630,
      "did": 1631,
      "ĠrÃ©v": 1632,
      "ĠsÃ©rie": 1633,
      "Ġafin": 1634,
      "ĠCes": 1635,
      "aid": 1636,
      "ĠGr": 1637,
      "Ġhommes": 1638,
      "tout": 1639,
      "Ġdemande": 1640,
      "Ġaffir": 1641,
      "ner": 1642,
      "Ġris": 1643,
      "Ġeux": 1644,
      "Ġtech": 1645,
      "Al": 1646,
      "Ġvendredi": 1647,
      "Ġdiri": 1648,
      "Ġtard": 1649,
      "Ġdimanche": 1650,
      "Ġsus": 1651,
      "Ġavons": 1652,
      "Ġdisc": 1653,
      "=\"": 1654,
      "off": 1655,
      "Ġcad": 1656,
      "Ġmaison": 1657,
      "port": 1658,
      "aliste": 1659,
      "avant": 1660,
      "ĠrÃ©sul": 1661,
      "nÃ©": 1662,
      "Ġreconn": 1663,
      "isÃ©": 1664,
      "tifs": 1665,
      "Ġsucc": 1666,
      "Ġtot": 1667,
      "ĠBl": 1668,
      "ĠBar": 1669,
      "Ġprogram": 1670,
      "tive": 1671,
      "ĠsÃ©cur": 1672,
      "ĠÃ©ch": 1673,
      "temps": 1674,
      "Ġviol": 1675,
      "Ġmatin": 1676,
      "Ġjeunes": 1677,
      "Ġoctobre": 1678,
      "Ġparce": 1679,
      "Ã¨ce": 1680,
      "oritÃ©": 1681,
      "quÃªte": 1682,
      "Ġlanc": 1683,
      "ule": 1684,
      "Ġretour": 1685,
      "Ġmieux": 1686,
      "Ġfonction": 1687,
      "Ġsame": 1688,
      "rÃªt": 1689,
      "antÃ©": 1690,
      "ites": 1691,
      "oires": 1692,
      "ĠÃītats": 1693,
      "Ġmettre": 1694,
      "yn": 1695,
      "raph": 1696,
      "Ã«": 1697,
      "Ġlundi": 1698,
      "Ġjuste": 1699,
      "Ġquestion": 1700,
      "ets": 1701,
      "fs": 1702,
      "bles": 1703,
      "Ġdoll": 1704,
      "Ġpolice": 1705,
      "rir": 1706,
      "Ġvict": 1707,
      "Ġfemmes": 1708,
      "Ġseulement": 1709,
      "ĠrÃ©d": 1710,
      "Ġcertains": 1711,
      "Ġoffici": 1712,
      "Ġpersonne": 1713,
      "pec": 1714,
      "Ġmardi": 1715,
      "Ġsimp": 1716,
      "Ġligne": 1717,
      "land": 1718,
      "ast": 1719,
      "Ġjeudi": 1720,
      "Ġrecher": 1721,
      "II": 1722,
      "Ġrev": 1723,
      "Ġempl": 1724,
      "join": 1725,
      "inc": 1726,
      "Ġcandid": 1727,
      "ĠMich": 1728,
      "Ġtoi": 1729,
      "iles": 1730,
      "Ġloi": 1731,
      "its": 1732,
      "ression": 1733,
      "olution": 1734,
      "ting": 1735,
      "Ġpours": 1736,
      "'s": 1737,
      "Ġconsid": 1738,
      "Ġprend": 1739,
      "cle": 1740,
      "anger": 1741,
      "Ġsouvent": 1742,
      "Ġsamedi": 1743,
      "ss": 1744,
      "Ġmot": 1745,
      "ĠSe": 1746,
      "ĠSur": 1747,
      "euros": 1748,
      "ĠreÃ§": 1749,
      "iller": 1750,
      "ĠdÃ©clarÃ©": 1751,
      "ome": 1752,
      "Ġquar": 1753,
      "Ġavril": 1754,
      "Ġguerre": 1755,
      "Ġmercredi": 1756,
      "osÃ©": 1757,
      "vant": 1758,
      "Ã©vrier": 1759,
      "Ġban": 1760,
      "yant": 1761,
      "Ġniveau": 1762,
      "iers": 1763,
      "Ã¨le": 1764,
      "Ã¨te": 1765,
      "Ġsyst": 1766,
      "Ġexemp": 1767,
      "pl": 1768,
      "sez": 1769,
      "Ġstr": 1770,
      "Ã©ti": 1771,
      "Ġpriv": 1772,
      "ĠdÃ¨s": 1773,
      "Ġ196": 1774,
      "Ġcal": 1775,
      "ager": 1776,
      "Ġense": 1777,
      "anche": 1778,
      "Ġmemb": 1779,
      "Ġsecond": 1780,
      "Ġgl": 1781,
      "Ã¢ce": 1782,
      "Ġbonne": 1783,
      "ĠmarchÃ©": 1784,
      "Ġinst": 1785,
      "ĠpassÃ©": 1786,
      "ĠsociÃ©tÃ©": 1787,
      "Ġactu": 1788,
      "Ġmag": 1789,
      "Ġcommune": 1790,
      "ith": 1791,
      "ĠrÃ©pond": 1792,
      "ailleurs": 1793,
      "oign": 1794,
      "Ġbless": 1795,
      "aute": 1796,
      "Ġcapit": 1797,
      "Ġnord": 1798,
      "Ġbesoin": 1799,
      "oot": 1800,
      "ĠfÃ©vrier": 1801,
      "urent": 1802,
      "Ã©nÃ©": 1803,
      "Ġrue": 1804,
      "Ġquoi": 1805,
      "ĠGu": 1806,
      "anti": 1807,
      "urg": 1808,
      "quip": 1809,
      "uli": 1810,
      "Ġservice": 1811,
      "ute": 1812,
      "Ġha": 1813,
      "rique": 1814,
      "Ġhum": 1815,
      "icile": 1816,
      "ĠÃ©quipe": 1817,
      "Ġpo": 1818,
      "io": 1819,
      "tent": 1820,
      "Ġmari": 1821,
      "Ġdist": 1822,
      "Ġhe": 1823,
      "Ġseront": 1824,
      "Ġdr": 1825,
      "Ġnature": 1826,
      "ĩa": 1827,
      "assi": 1828,
      "Ġsite": 1829,
      "Ar": 1830,
      "fic": 1831,
      "rÃ©al": 1832,
      "Ġalle": 1833,
      "Ġrap": 1834,
      "Ġ2014": 1835,
      "Ġtent": 1836,
      "oses": 1837,
      "Ġoc": 1838,
      "ĠnÃ©c": 1839,
      "once": 1840,
      "ĠFranÃ§ois": 1841,
      "Ġatte": 1842,
      "ls": 1843,
      "Ġtri": 1844,
      "Ġmembres": 1845,
      "Ġgagn": 1846,
      "ied": 1847,
      "vision": 1848,
      "Ġsavoir": 1849,
      "Ġautor": 1850,
      "ock": 1851,
      "igue": 1852,
      "Ġsud": 1853,
      "Ġton": 1854,
      "Ġnationale": 1855,
      "Ġpasse": 1856,
      "Ã©rence": 1857,
      "ĠThe": 1858,
      "Ġfils": 1859,
      "ĠdÃ©pl": 1860,
      "ende": 1861,
      "cident": 1862,
      "Ã©qu": 1863,
      "Ã¨rent": 1864,
      "Ġmise": 1865,
      "ative": 1866,
      "ĠNew": 1867,
      "Ġeng": 1868,
      "ouss": 1869,
      "Ġgra": 1870,
      "Ġmaintenant": 1871,
      "quel": 1872,
      "lec": 1873,
      "ĠnÃ©g": 1874,
      "iff": 1875,
      "Ġdess": 1876,
      "ĠrÃ©un": 1877,
      "ĠSa": 1878,
      "ĠfranÃ§aise": 1879,
      "ĠmÃ©t": 1880,
      "ĠMe": 1881,
      "alie": 1882,
      "Ġtrouve": 1883,
      "Ġatta": 1884,
      "alle": 1885,
      "je": 1886,
      "Ġvraiment": 1887,
      "Ġpeuvent": 1888,
      "Ġensuite": 1889,
      "Ġfille": 1890,
      "oun": 1891,
      "itants": 1892,
      "Ġtomb": 1893,
      "ĠannoncÃ©": 1894,
      "Ġquit": 1895,
      "ĠsÃ©curitÃ©": 1896,
      "gment": 1897,
      "tra": 1898,
      "Ġmanif": 1899,
      "Ġcause": 1900,
      "Ġmilliards": 1901,
      "ĠTout": 1902,
      "Ġ2015": 1903,
      "idÃ©": 1904,
      "Åĵu": 1905,
      "tient": 1906,
      "Ġfont": 1907,
      "Ġhaut": 1908,
      "Ġdevrait": 1909,
      "ela": 1910,
      "Ġ2012": 1911,
      "ĠAlors": 1912,
      "jec": 1913,
      "ice": 1914,
      "mment": 1915,
      "Ã©rer": 1916,
      "Ġdoc": 1917,
      "ras": 1918,
      "ĠÃĩa": 1919,
      "Ġeuros": 1920,
      "Ġsituation": 1921,
      "Ġten": 1922,
      "Ġsens": 1923,
      "mÃªme": 1924,
      "env": 1925,
      "Ġ194": 1926,
      "Ġmun": 1927,
      "gu": 1928,
      "utÃ©": 1929,
      "lles": 1930,
      "ĠÃ¢": 1931,
      "avait": 1932,
      "auche": 1933,
      "ĠamÃ©ricain": 1934,
      "urÃ©": 1935,
      "Ġsurtout": 1936,
      "ĠAvec": 1937,
      "ĠDu": 1938,
      "asion": 1939,
      "ĠtroisiÃ¨me": 1940,
      "Ġentrepr": 1941,
      "Ġarriv": 1942,
      "Ġdos": 1943,
      "ouse": 1944,
      "action": 1945,
      "ppe": 1946,
      "Ġvicti": 1947,
      "ennes": 1948,
      "ĠaoÃ»t": 1949,
      "Ġpense": 1950,
      "ĠmÃ¨re": 1951,
      "Ġdollars": 1952,
      "pendant": 1953,
      "Ġnombreux": 1954,
      "Ġ2013": 1955,
      "ĠthÃ©": 1956,
      "ĠdÃ©t": 1957,
      "ĠAm": 1958,
      "Ġdirecteur": 1959,
      "ly": 1960,
      "Ã©ro": 1961,
      "erre": 1962,
      "tit": 1963,
      "ki": 1964,
      "ĠsÃ»": 1965,
      "Ġ21": 1966,
      "Ġparc": 1967,
      "aÃ®tre": 1968,
      "ĠPlus": 1969,
      "Ġsyn": 1970,
      "tÃ©rieur": 1971,
      "ash": 1972,
      "isation": 1973,
      "ball": 1974,
      "ĠCor": 1975,
      "sp": 1976,
      "utes": 1977,
      "ĠnÃ©cess": 1978,
      "Ġtravers": 1979,
      "ĠdÃ©couv": 1980,
      "main": 1981,
      "intÃ©": 1982,
      "mission": 1983,
      "Le": 1984,
      "illage": 1985,
      "Ġwe": 1986,
      "ork": 1987,
      "Ġdonner": 1988,
      "Ġvit": 1989,
      "ĠCanada": 1990,
      "Ġ24": 1991,
      "ĠPas": 1992,
      "istr": 1993,
      "Ġexplique": 1994,
      "ĠprÃ©f": 1995,
      "Ġminist": 1996,
      "ociation": 1997,
      "sance": 1998,
      "quant": 1999,
      "son": 2000,
      "Ġelles": 2001,
      "Ġ22": 2002,
      "Ġlim": 2003,
      "eff": 2004,
      "tention": 2005,
      "Ġsujet": 2006,
      "histoire": 2007,
      "Ġtrouver": 2008,
      "Ġphot": 2009,
      "ĠsystÃ¨me": 2010,
      "ĠpÃ©riode": 2011,
      "Ġrend": 2012,
      "Ġloin": 2013,
      "Ġaccord": 2014,
      "cri": 2015,
      "raient": 2016,
      "Ġqual": 2017,
      "Ġord": 2018,
      "Ġpetite": 2019,
      "aj": 2020,
      "Ġarri": 2021,
      "Ġfinanci": 2022,
      "Ġrac": 2023,
      "ĠprÃª": 2024,
      "Ġkm": 2025,
      "Ãītat": 2026,
      "Ġfeu": 2027,
      "iel": 2028,
      "oth": 2029,
      "--": 2030,
      "usÃ©": 2031,
      "Ġgen": 2032,
      "Ġfrom": 2033,
      "ĠTr": 2034,
      "iser": 2035,
      "ditions": 2036,
      "Ġforme": 2037,
      "lo": 2038,
      "Ġnum": 2039,
      "homme": 2040,
      "isc": 2041,
      "ograph": 2042,
      "Ġ2011": 2043,
      "Ġdix": 2044,
      "ĠPr": 2045,
      "Ġnuit": 2046,
      "agit": 2047,
      "ĠJoh": 2048,
      "ĠDepuis": 2049,
      "ĠgrÃ¢ce": 2050,
      "ologie": 2051,
      "Ġpasser": 2052,
      "Ġrencontre": 2053,
      "ĠBel": 2054,
      "Ġterrit": 2055,
      "atÃ©g": 2056,
      "Ġavez": 2057,
      "Ġrem": 2058,
      "atta": 2059,
      "Ġbe": 2060,
      "30": 2061,
      "utÃ´t": 2062,
      "ĠMontrÃ©al": 2063,
      "Ġpeux": 2064,
      "ĠdonnÃ©": 2065,
      "Ġ2017": 2066,
      "Ġ2016": 2067,
      "erie": 2068,
      "ape": 2069,
      "ĠdÃ©cid": 2070,
      "iversitÃ©": 2071,
      "Ġparler": 2072,
      "Ġconv": 2073,
      "Ġlit": 2074,
      "ĠMal": 2075,
      "Ġcorps": 2076,
      "Ġassez": 2077,
      "icip": 2078,
      "Je": 2079,
      "Ġseule": 2080,
      "af": 2081,
      "Ġaller": 2082,
      "Ġmanifest": 2083,
      "Ġprofes": 2084,
      "Ġ(\"": 2085,
      "Ġchange": 2086,
      "heure": 2087,
      "Ġsort": 2088,
      "nent": 2089,
      "Ġservices": 2090,
      "ĠmÃ©di": 2091,
      "Ġsommes": 2092,
      "arde": 2093,
      "rog": 2094,
      "Ġchoses": 2095,
      "oient": 2096,
      "Ġ$": 2097,
      "Ġplac": 2098,
      "ĠfaÃ§on": 2099,
      "Ġvient": 2100,
      "50": 2101,
      "Ġ2010": 2102,
      "oud": 2103,
      "tice": 2104,
      "erts": 2105,
      "Ġdoi": 2106,
      "Ġconfir": 2107,
      "Ġsouh": 2108,
      "Ġayant": 2109,
      "Ġchev": 2110,
      "Ġcommenc": 2111,
      "Ġmouve": 2112,
      "Ġconfi": 2113,
      "ĠbÃ¢": 2114,
      "Ġspect": 2115,
      "ĠSch": 2116,
      "dien": 2117,
      "neur": 2118,
      "tivitÃ©": 2119,
      "reg": 2120,
      "tenir": 2121,
      "forme": 2122,
      "Ġfra": 2123,
      "oupes": 2124,
      "Ġnouvelles": 2125,
      "oite": 2126,
      "ox": 2127,
      "abord": 2128,
      "up": 2129,
      "Ġclasse": 2130,
      "lam": 2131,
      "Ġnational": 2132,
      "Ã©ch": 2133,
      "Ġaura": 2134,
      "resse": 2135,
      "quelle": 2136,
      "Ġvais": 2137,
      "Ġpat": 2138,
      "ĠBen": 2139,
      "Ġvue": 2140,
      "Ġinv": 2141,
      "ĠNic": 2142,
      "Ġmunicip": 2143,
      "Ġtechn": 2144,
      "ouis": 2145,
      "Ġjoueurs": 2146,
      "ĠsuccÃ¨s": 2147,
      "Ã©h": 2148,
      "ĠComme": 2149,
      "uve": 2150,
      "let": 2151,
      "ĠÃ©tran": 2152,
      "lin": 2153,
      "ince": 2154,
      "urer": 2155,
      "roy": 2156,
      "Ġpresse": 2157,
      "Ġvictoire": 2158,
      "istor": 2159,
      "Ġgrands": 2160,
      "Ã©tu": 2161,
      "ĠplutÃ´t": 2162,
      "ĠjournÃ©e": 2163,
      "Ġress": 2164,
      "Ġpossible": 2165,
      "arr": 2166,
      "ones": 2167,
      "Ġsau": 2168,
      "Ġplu": 2169,
      "Ġfinale": 2170,
      "ĠdÃ©cision": 2171,
      "lise": 2172,
      "Ġlaquelle": 2173,
      "Ã©rale": 2174,
      "gh": 2175,
      "aill": 2176,
      "Ġcit": 2177,
      "ĠMan": 2178,
      "ition": 2179,
      "aprÃ¨s": 2180,
      "ĠrÃ´le": 2181,
      "inst": 2182,
      "18": 2183,
      "Ġexemple": 2184,
      "ĠOu": 2185,
      "ĠdÃ©fense": 2186,
      "Ġrom": 2187,
      "ĠÃ©crit": 2188,
      "ĠrÃ¨g": 2189,
      "Ġdirection": 2190,
      "Ġheure": 2191,
      "Ã©cu": 2192,
      "lie": 2193,
      "Ġdurant": 2194,
      "Ġrapide": 2195,
      "onnement": 2196,
      "xte": 2197,
      "Ġpopulation": 2198,
      "Ġsein": 2199,
      "ĠPre": 2200,
      "Ã¨de": 2201,
      "oser": 2202,
      "illeurs": 2203,
      "Ã¨ge": 2204,
      "Ġgros": 2205,
      "rice": 2206,
      "ĠQuand": 2207,
      "ĠscÃ¨ne": 2208,
      "Ã«l": 2209,
      "Ġ23": 2210,
      "ĠdÃ©n": 2211,
      "ormais": 2212,
      "ĠsantÃ©": 2213,
      "Ġdonne": 2214,
      "Åĵur": 2215,
      "Ġinform": 2216,
      "Ġautour": 2217,
      "ik": 2218,
      "Ã¨ve": 2219,
      "Ġvois": 2220,
      "Ġpied": 2221,
      "hÃ´": 2222,
      "tern": 2223,
      "Ġregard": 2224,
      "ĠSy": 2225,
      "ĠRob": 2226,
      "Ġchois": 2227,
      "Ġpremiers": 2228,
      "Ġ2018": 2229,
      "ek": 2230,
      "enf": 2231,
      "ult": 2232,
      "Ġ50": 2233,
      "ĠÃ©tab": 2234,
      "gr": 2235,
      "Ġculture": 2236,
      "Ġcampagne": 2237,
      "lÃł": 2238,
      "ĠLors": 2239,
      "ĠCol": 2240,
      "Ġvale": 2241,
      "ĠAb": 2242,
      "Ġobs": 2243,
      "Ġminutes": 2244,
      "ensi": 2245,
      "vient": 2246,
      "vÃ©": 2247,
      "ument": 2248,
      "ĠPro": 2249,
      "chÃ©s": 2250,
      "Ġsup": 2251,
      "Ġconstitu": 2252,
      "Ġcadre": 2253,
      "bum": 2254,
      "ĠbÃ©nÃ©": 2255,
      "Ġinves": 2256,
      "dit": 2257,
      "Ġmilieu": 2258,
      "Ġqualif": 2259,
      "Ġconseil": 2260,
      "Ġ2009": 2261,
      "Ġvont": 2262,
      "aissance": 2263,
      "Ġdevient": 2264,
      "Ġcou": 2265,
      "Ġfac": 2266,
      "ĠDi": 2267,
      "ald": 2268,
      "ĠindiquÃ©": 2269,
      "Ġtemp": 2270,
      "Ġmusique": 2271,
      "Ġend": 2272,
      "estre": 2273,
      "ettes": 2274,
      "Ġterme": 2275,
      "Ġtable": 2276,
      "Ġsemaines": 2277,
      "lÃ©ment": 2278,
      "ĠtÃ©m": 2279,
      "Ġfoot": 2280,
      "Ġsemble": 2281,
      "Ġchiff": 2282,
      "Ġopp": 2283,
      "Ġfig": 2284,
      "La": 2285,
      "Ġartis": 2286,
      "accord": 2287,
      "Ã¢te": 2288,
      "ype": 2289,
      "occ": 2290,
      "Ġpolici": 2291,
      "Ġgauche": 2292,
      "Ġparticuli": 2293,
      "Ġdemi": 2294,
      "aume": 2295,
      "Ġ2008": 2296,
      "ON": 2297,
      "apon": 2298,
      "orig": 2299,
      "Ã©rique": 2300,
      "Ġlarge": 2301,
      "quent": 2302,
      "ainte": 2303,
      "ĠFranÃ§ais": 2304,
      "ĠPierre": 2305,
      "ĠJohn": 2306,
      "ĠdÃ©veloppement": 2307,
      "Ġriv": 2308,
      "Ġjuge": 2309,
      "Ġmer": 2310,
      "hab": 2311,
      "Ġeffec": 2312,
      "ĠmaniÃ¨re": 2313,
      "ader": 2314,
      "ĠÃ©quip": 2315,
      "Etat": 2316,
      "ĠvÃ©r": 2317,
      "Ġroute": 2318,
      "oz": 2319,
      "Ġvoix": 2320,
      "Ġailleurs": 2321,
      "ible": 2322,
      "ĠÃ©tudi": 2323,
      "Ġmesure": 2324,
      "Ġprofessionn": 2325,
      "ocra": 2326,
      "argent": 2327,
      "ĠPl": 2328,
      "ĠdÃ©g": 2329,
      "Ġlang": 2330,
      "Ġdirige": 2331,
      "eng": 2332,
      "rez": 2333,
      "atiques": 2334,
      "ancien": 2335,
      "alitÃ©s": 2336,
      "Ġsuff": 2337,
      "Ġciv": 2338,
      "Ġ100": 2339,
      "dec": 2340,
      "Ġzone": 2341,
      "ĠSte": 2342,
      "inf": 2343,
      "ablement": 2344,
      "organis": 2345,
      "Ġbase": 2346,
      "ĠrÃ©ussi": 2347,
      "aw": 2348,
      "Ġ/": 2349,
      "tiÃ¨re": 2350,
      "ĠGe": 2351,
      "Ġproduction": 2352,
      "Ġabs": 2353,
      "ission": 2354,
      "lent": 2355,
      "quis": 2356,
      "Ġprogramme": 2357,
      "oly": 2358,
      "ĠdÃ©part": 2359,
      "Ġbi": 2360,
      "rale": 2361,
      "Ġtermin": 2362,
      "ĠdÃ©sormais": 2363,
      "autÃ©": 2364,
      "ĠdÃ»": 2365,
      "ĠdÃ©partement": 2366,
      "ĠNord": 2367,
      "Ġjouer": 2368,
      "ulti": 2369,
      "ĠmaÃ®": 2370,
      "der": 2371,
      "Europe": 2372,
      "Ġaucun": 2373,
      "aci": 2374,
      "onomie": 2375,
      "rou": 2376,
      "ĠfÃ©d": 2377,
      "Ġcrise": 2378,
      "Ġderniers": 2379,
      "itaires": 2380,
      "Ġcommuni": 2381,
      "Ġcirc": 2382,
      "obil": 2383,
      "ĠEtats": 2384,
      "Ġanim": 2385,
      "ĠRÃ©p": 2386,
      "ĠcarriÃ¨re": 2387,
      "ĠOr": 2388,
      "agÃ©": 2389,
      "ina": 2390,
      "ĠeuropÃ©enne": 2391,
      "oise": 2392,
      "ĠÃ©lect": 2393,
      "Ġsouff": 2394,
      "Ġaugment": 2395,
      "Ġval": 2396,
      "Ġdispar": 2397,
      "Ġvillage": 2398,
      "oti": 2399,
      "tte": 2400,
      "ĠIs": 2401,
      "Ġpropri": 2402,
      "Ġentreprises": 2403,
      "ĠÃ©n": 2404,
      "Ġsenti": 2405,
      "gne": 2406,
      "ĠMme": 2407,
      "Ġimportant": 2408,
      "rais": 2409,
      "ĠDav": 2410,
      "Ġtaux": 2411,
      "atoire": 2412,
      "empl": 2413,
      "ĠÃ©tant": 2414,
      "Ġfai": 2415,
      "onie": 2416,
      "erne": 2417,
      "ote": 2418,
      "Ġterre": 2419,
      "Ġmaire": 2420,
      "ip": 2421,
      "Ġcharg": 2422,
      "Ġconcern": 2423,
      "Ġ40": 2424,
      "Ġtrib": 2425,
      "Ġroi": 2426,
      "Ġfav": 2427,
      "heim": 2428,
      "ication": 2429,
      "Ġneu": 2430,
      "urb": 2431,
      "abilitÃ©": 2432,
      "Ġpeine": 2433,
      "magne": 2434,
      "Ġanti": 2435,
      "Ġformation": 2436,
      "ates": 2437,
      "Ġtrait": 2438,
      "Ġsecteur": 2439,
      "Ġrecherche": 2440,
      "ambre": 2441,
      "onte": 2442,
      "Ġpublique": 2443,
      "Ġenviron": 2444,
      "Ġposs": 2445,
      "Ġcompagn": 2446,
      "Ġmeilleur": 2447,
      "Ġnouveaux": 2448,
      "eter": 2449,
      "ident": 2450,
      "Ġhabitants": 2451,
      "ption": 2452,
      "origine": 2453,
      "aide": 2454,
      "ĠÃ©conomique": 2455,
      "Ġposte": 2456,
      "Ġdoute": 2457,
      "Ġconnu": 2458,
      "Ġradi": 2459,
      "Ġjournal": 2460,
      "Ġancien": 2461,
      "ĠentraÃ®": 2462,
      "usement": 2463,
      "Ġpoursui": 2464,
      "Ġ27": 2465,
      "Ġsex": 2466,
      "old": 2467,
      "Ġ26": 2468,
      "moi": 2469,
      "tenu": 2470,
      "rig": 2471,
      "rant": 2472,
      "Ġlongue": 2473,
      "Ġmi": 2474,
      "ublique": 2475,
      "Ġjoueur": 2476,
      "ĠDan": 2477,
      "ĠFin": 2478,
      "10": 2479,
      "Ġ195": 2480,
      "ĠauprÃ¨s": 2481,
      "Ġajou": 2482,
      "Ġtelle": 2483,
      "tine": 2484,
      "Ġrempl": 2485,
      "Ġdestin": 2486,
      "ĠderniÃ¨res": 2487,
      "lÃ¨me": 2488,
      "Ġdossi": 2489,
      "Ġ28": 2490,
      "Ġmouvement": 2491,
      "Ġlut": 2492,
      "aie": 2493,
      "Ġ2019": 2494,
      "Ġbord": 2495,
      "uy": 2496,
      "ingt": 2497,
      "lor": 2498,
      "Ġlet": 2499,
      "ĠRoy": 2500,
      "avais": 2501,
      "llemagne": 2502,
      "Ġsuiv": 2503,
      "andis": 2504,
      "erb": 2505,
      "Ġchoix": 2506,
      "este": 2507,
      "Ġmor": 2508,
      "och": 2509,
      "ĠgÃ©": 2510,
      "Ġhistor": 2511,
      "FP": 2512,
      "oid": 2513,
      "tivitÃ©s": 2514,
      "rod": 2515,
      "quÃ©e": 2516,
      "ensemble": 2517,
      "ark": 2518,
      "ĠrÃ©sultats": 2519,
      "Ġorig": 2520,
      "crit": 2521,
      "Ġposition": 2522,
      "ĠNon": 2523,
      "Ġexc": 2524,
      "atis": 2525,
      "Ġdroite": 2526,
      "Ġpourquoi": 2527,
      "Ġemb": 2528,
      "Ġterrain": 2529,
      "Ġtoutefois": 2530,
      "ĠCour": 2531,
      "auteur": 2532,
      "ĠvidÃ©": 2533,
      "Ġlivre": 2534,
      "Ġrendre": 2535,
      "ordre": 2536,
      "Ġint": 2537,
      "part": 2538,
      "arc": 2539,
      "sements": 2540,
      "ick": 2541,
      "Ġconserv": 2542,
      "Ġaucune": 2543,
      "lÃ©g": 2544,
      "Ġach": 2545,
      "Ġsig": 2546,
      "ĠmÃ©dec": 2547,
      "ĠÃªtes": 2548,
      "ĠAng": 2549,
      "seil": 2550,
      "Ġrisque": 2551,
      "ĠprÃ©sente": 2552,
      "arch": 2553,
      "Ġproduits": 2554,
      "ĠproblÃ¨me": 2555,
      "Ġimm": 2556,
      "Ġdroits": 2557,
      "Ġcollec": 2558,
      "ĠPhili": 2559,
      "ĠSud": 2560,
      "Ġsac": 2561,
      "ĠsÃ»r": 2562,
      "Ġparfois": 2563,
      "Ġparmi": 2564,
      "aude": 2565,
      "udg": 2566,
      "ana": 2567,
      "ĠbÃ¢ti": 2568,
      "ama": 2569,
      "Ġforce": 2570,
      "Ġyeux": 2571,
      "Ã¢tre": 2572,
      "orts": 2573,
      "Ġmauv": 2574,
      "Ġmondiale": 2575,
      "ĠamÃ©ricaine": 2576,
      "ĠprÃ©cÃ©d": 2577,
      "Ġsait": 2578,
      "ĠJus": 2579,
      "Ġhier": 2580,
      "ennent": 2581,
      "armÃ©e": 2582,
      "airement": 2583,
      "ĠTru": 2584,
      "igh": 2585,
      "ĠPe": 2586,
      "inÃ©": 2587,
      "Ġpropre": 2588,
      "Ġrelig": 2589,
      "Ã©tais": 2590,
      "ĠGrand": 2591,
      "ville": 2592,
      "Ġautant": 2593,
      "ano": 2594,
      "Ġchemin": 2595,
      "Ġvos": 2596,
      "iÃ©": 2597,
      "ĠQue": 2598,
      "usion": 2599,
      "ony": 2600,
      "Ġretrouv": 2601,
      "ck": 2602,
      "ĠarrÃª": 2603,
      "xim": 2604,
      "rage": 2605,
      "Ġdoivent": 2606,
      "ĠYork": 2607,
      "ault": 2608,
      "miÃ¨re": 2609,
      "Ġattend": 2610,
      "Ġproduit": 2611,
      "ma": 2612,
      "Ãªtes": 2613,
      "ouverture": 2614,
      "onnes": 2615,
      "ionnat": 2616,
      "cÃ©": 2617,
      "ĠEurope": 2618,
      "ĠdÃ©fin": 2619,
      "Ġtravaux": 2620,
      "ple": 2621,
      "vid": 2622,
      "Ġcy": 2623,
      "ase": 2624,
      "Ġgard": 2625,
      "ost": 2626,
      "iennent": 2627,
      "ĠPaul": 2628,
      "Ġvoiture": 2629,
      "ritann": 2630,
      "Ġscien": 2631,
      "Ġdifficile": 2632,
      "mÃ©di": 2633,
      "ĠMad": 2634,
      "Ġjoue": 2635,
      "ĠCela": 2636,
      "ĠConseil": 2637,
      "Ġgenre": 2638,
      "ĠHar": 2639,
      "ĠQuel": 2640,
      "ĠJac": 2641,
      "Ġsuper": 2642,
      "lign": 2643,
      "bourg": 2644,
      "Ġaccomp": 2645,
      "Ġrejoin": 2646,
      "sembl": 2647,
      "Ġsav": 2648,
      "ĠcompÃ©ti": 2649,
      "ĠBe": 2650,
      "Ġgrandes": 2651,
      "Ġsalle": 2652,
      "Ġangl": 2653,
      "Ġchar": 2654,
      "Ġforces": 2655,
      "ĠHe": 2656,
      "Ġdiffic": 2657,
      "Ġta": 2658,
      "iche": 2659,
      "Ġchans": 2660,
      "Ġspectac": 2661,
      "Ġnav": 2662,
      "oub": 2663,
      "ĠCoupe": 2664,
      "oyer": 2665,
      "ritannique": 2666,
      "Ġpermis": 2667,
      "tie": 2668,
      "Ġvenir": 2669,
      "Ġconte": 2670,
      "Ġlongtemps": 2671,
      "Ġnombreuses": 2672,
      "ĠDeux": 2673,
      "rid": 2674,
      "Ġaccue": 2675,
      "Ġtype": 2676,
      "orÃ©": 2677,
      "Ġcam": 2678,
      "Ġwh": 2679,
      "Ġ2007": 2680,
      "cipe": 2681,
      "ouverte": 2682,
      "Am": 2683,
      "Ġpolitiques": 2684,
      "ĠVal": 2685,
      "agement": 2686,
      "atives": 2687,
      "15": 2688,
      "Ġmeur": 2689,
      "ĠmÃ¨tres": 2690,
      "ĠprÃ©sence": 2691,
      "iner": 2692,
      "Ã©cole": 2693,
      "tor": 2694,
      "Ġhausse": 2695,
      "Ġrappel": 2696,
      "Ġcondam": 2697,
      "ĠvÃ©h": 2698,
      "Ġassoci": 2699,
      "ider": 2700,
      "ancer": 2701,
      "ity": 2702,
      "ades": 2703,
      "Ġkil": 2704,
      "olas": 2705,
      "Ġprochain": 2706,
      "Ġjustice": 2707,
      "Ġpresque": 2708,
      "Ġconstruction": 2709,
      "Ãªmes": 2710,
      "vres": 2711,
      "Ã¨se": 2712,
      "Ġperdu": 2713,
      "tÃ©r": 2714,
      "Ġcommerci": 2715,
      "enant": 2716,
      "rec": 2717,
      "Ġbudg": 2718,
      "Ġtandis": 2719,
      "ĠsupÃ©ri": 2720,
      "entreprise": 2721,
      "ĠÃ©trang": 2722,
      "ĠAd": 2723,
      "reux": 2724,
      "sy": 2725,
      "Ch": 2726,
      "ĠcontrÃ´le": 2727,
      "17": 2728,
      "Ġpati": 2729,
      "Ġsout": 2730,
      "Ġvolont": 2731,
      "Il": 2732,
      "ĠvÃ©hic": 2733,
      "fici": 2734,
      "atif": 2735,
      "oux": 2736,
      "ĠministÃ¨re": 2737,
      "occasion": 2738,
      "ume": 2739,
      "quet": 2740,
      "ĠLigue": 2741,
      "US": 2742,
      "by": 2743,
      "Ġcanadi": 2744,
      "Ġ193": 2745,
      "Ġparle": 2746,
      "Ã¨ces": 2747,
      "Ġtrain": 2748,
      "Ġfavor": 2749,
      "ka": 2750,
      "ĠLib": 2751,
      "Ã¼": 2752,
      "ustr": 2753,
      "Ġemploy": 2754,
      "Ġbal": 2755,
      "ĠpÃ©n": 2756,
      "ĠRussi": 2757,
      "Ġgarde": 2758,
      "men": 2759,
      "Ġlorsque": 2760,
      "oine": 2761,
      "Ġsyndic": 2762,
      "rÃ©t": 2763,
      "ĠRen": 2764,
      "Ġliste": 2765,
      "ays": 2766,
      "ouest": 2767,
      "Ġai": 2768,
      "Ġbout": 2769,
      "Ġparents": 2770,
      "chi": 2771,
      "ĠdÃ©cidÃ©": 2772,
      "Ġaccep": 2773,
      "ĠcrÃ©ation": 2774,
      "Ġterritoire": 2775,
      "ĠderriÃ¨re": 2776,
      "erce": 2777,
      "alisation": 2778,
      "ĠMac": 2779,
      "ĠRÃ©publique": 2780,
      "ĠSu": 2781,
      "Ġbelle": 2782,
      "Ġlance": 2783,
      "entrÃ©e": 2784,
      "Ġsortie": 2785,
      "Ã©di": 2786,
      "roche": 2787,
      "jectif": 2788,
      "ĠcommuniquÃ©": 2789,
      "pital": 2790,
      "ĠsituÃ©e": 2791,
      "Ã©taire": 2792,
      "ĠSal": 2793,
      "entraÃ®": 2794,
      "ĠMarc": 2795,
      "uelle": 2796,
      "Ġtransport": 2797,
      "Ġappr": 2798,
      "ague": 2799,
      "Ġlequel": 2800,
      "oration": 2801,
      "Ġsept": 2802,
      "endance": 2803,
      "Ġdate": 2804,
      "Ġchac": 2805,
      "orer": 2806,
      "Ġmarque": 2807,
      "Ġrester": 2808,
      "ĠajoutÃ©": 2809,
      "ĠPourquoi": 2810,
      "Ġensemble": 2811,
      "Ġvingt": 2812,
      "Ġtotal": 2813,
      "ĠrÃ©seau": 2814,
      "Ġcherche": 2815,
      "oe": 2816,
      "Ġus": 2817,
      "Ġconditions": 2818,
      "Ġcependant": 2819,
      "Ġami": 2820,
      "Ġcommand": 2821,
      "Ġ29": 2822,
      "Ġsh": 2823,
      "erve": 2824,
      "Ġsom": 2825,
      "ironnement": 2826,
      "ĠÅĵu": 2827,
      "ĠChine": 2828,
      "iquement": 2829,
      "ysi": 2830,
      "vention": 2831,
      "ĠautoritÃ©s": 2832,
      "Ġbois": 2833,
      "Ġred": 2834,
      "Ġlog": 2835,
      "amen": 2836,
      "Ġcourse": 2837,
      "ĠAnd": 2838,
      "ĠLouis": 2839,
      "ara": 2840,
      "ĠprocÃ©d": 2841,
      "ĠmÃ©dic": 2842,
      "tiers": 2843,
      "Ġbure": 2844,
      "Ġfootball": 2845,
      "ĠÃ©l": 2846,
      "lant": 2847,
      "ĠmalgrÃ©": 2848,
      "ules": 2849,
      "Ġanal": 2850,
      "Ġby": 2851,
      "ĠmajoritÃ©": 2852,
      "ĠMichel": 2853,
      "ministr": 2854,
      "til": 2855,
      "ĠÃ©lections": 2856,
      "Ġmembre": 2857,
      "Ġlo": 2858,
      "Ġcertaines": 2859,
      "prit": 2860,
      "olÃ©": 2861,
      "ĠBer": 2862,
      "Ġdivers": 2863,
      "ĠChris": 2864,
      "ception": 2865,
      "Ġcroissance": 2866,
      "Ġvas": 2867,
      "ĠsiÃ¨cle": 2868,
      "Ġlu": 2869,
      "Ġvoyage": 2870,
      "ĠreÃ§u": 2871,
      "Ġprot": 2872,
      "rance": 2873,
      "Les": 2874,
      "Ġcharge": 2875,
      "Ã©poque": 2876,
      "ES": 2877,
      "ĠChamp": 2878,
      "onnÃ©": 2879,
      "estiv": 2880,
      "lit": 2881,
      "Ġsang": 2882,
      "Ġsaid": 2883,
      "titude": 2884,
      "Ġconsomm": 2885,
      "ĠnÃ©goci": 2886,
      "ĠOui": 2887,
      "ley": 2888,
      "inaire": 2889,
      "ĠDieu": 2890,
      "veur": 2891,
      "Ġexpl": 2892,
      "Ġmulti": 2893,
      "ĠBien": 2894,
      "ber": 2895,
      "Ġprison": 2896,
      "oil": 2897,
      "ĠEst": 2898,
      "avantage": 2899,
      "Ġpap": 2900,
      "Ġdevait": 2901,
      "Ġcompagnie": 2902,
      "iz": 2903,
      "ositions": 2904,
      "Ġresponsable": 2905,
      "Ġcombat": 2906,
      "Ġbaisse": 2907,
      "ĠdemandÃ©": 2908,
      "ĠLond": 2909,
      "ĠChe": 2910,
      "Ġdipl": 2911,
      "14": 2912,
      "Ġouvert": 2913,
      "Union": 2914,
      "Ġbel": 2915,
      "Ġamb": 2916,
      "acitÃ©": 2917,
      "emb": 2918,
      "dess": 2919,
      "ood": 2920,
      "Ġdirect": 2921,
      "Ġ'": 2922,
      "asser": 2923,
      "Ġrapidement": 2924,
      "ĠprotÃ©": 2925,
      "Ġsembl": 2926,
      "ĠsituÃ©": 2927,
      "Ġpartis": 2928,
      "endra": 2929,
      "ertÃ©": 2930,
      "ĠSp": 2931,
      "ames": 2932,
      "Ġfinalement": 2933,
      "Ã©rations": 2934,
      "Ġpai": 2935,
      "Ġmesures": 2936,
      "Ġ.": 2937,
      "Ġquoti": 2938,
      "bo": 2939,
      "mont": 2940,
      "ĠComment": 2941,
      "appel": 2942,
      "ĠII": 2943,
      "Ġmoyenne": 2944,
      "Or": 2945,
      "Ġcoule": 2946,
      "12": 2947,
      "Ġjur": 2948,
      "Ġmorts": 2949,
      "Ġparten": 2950,
      "estival": 2951,
      "issement": 2952,
      "etÃ©": 2953,
      "Ġplein": 2954,
      "Ġpil": 2955,
      "Ã©lÃ¨": 2956,
      "ĠlancÃ©": 2957,
      "Ġautom": 2958,
      "ĠtrouvÃ©": 2959,
      "Ġanci": 2960,
      "Ġhuit": 2961,
      "ĠCons": 2962,
      "ustri": 2963,
      "Ġstat": 2964,
      "talie": 2965,
      "nements": 2966,
      "Ġreb": 2967,
      "ĠpremiÃ¨res": 2968,
      "Ġpourtant": 2969,
      "ĠenquÃªte": 2970,
      "igr": 2971,
      "Ġcitoy": 2972,
      "Ã©le": 2973,
      "termin": 2974,
      "ots": 2975,
      "Ġpal": 2976,
      "Ġestime": 2977,
      "Ġsouhait": 2978,
      "anne": 2979,
      "Ġlaisser": 2980,
      "16": 2981,
      "ĠrÃª": 2982,
      "ĠDavid": 2983,
      "Ġsocial": 2984,
      "ha": 2985,
      "ĠfrÃ©": 2986,
      "Ġlorsqu": 2987,
      "Ã©tique": 2988,
      "cess": 2989,
      "ĠAlex": 2990,
      "Ġsoulign": 2991,
      "Ġvite": 2992,
      "Ġcouv": 2993,
      "Ġiniti": 2994,
      "arer": 2995,
      "orie": 2996,
      "ira": 2997,
      "ditionn": 2998,
      "ĠprÃ©cisÃ©": 2999,
      "ĠfrÃ¨re": 3000,
      "Ġpetits": 3001,
      "tiss": 3002,
      "aller": 3003,
      "Ã©ma": 3004,
      "we": 3005,
      "Ġoblig": 3006,
      "ĠParti": 3007,
      "ĠNicolas": 3008,
      "Ġinternationale": 3009,
      "ĠdÃ©mocra": 3010,
      "Ġcapitale": 3011,
      "atrice": 3012,
      "Ġseconde": 3013,
      "Ġgu": 3014,
      "Ġallemand": 3015,
      "cs": 3016,
      "Ã¢teau": 3017,
      "Ġunivers": 3018,
      "Ġplupart": 3019,
      "ination": 3020,
      "Ġsource": 3021,
      "ĠEx": 3022,
      "rist": 3023,
      "Ġrespec": 3024,
      "inform": 3025,
      "Ġroy": 3026,
      "bilitÃ©": 3027,
      "ĠdonnÃ©es": 3028,
      "Ġmilitaire": 3029,
      "Ġsuc": 3030,
      "ends": 3031,
      "rad": 3032,
      "Ġsigni": 3033,
      "Ġrais": 3034,
      "ares": 3035,
      "ĠtÃ©lÃ©ph": 3036,
      "Ġpossi": 3037,
      "entiel": 3038,
      "Ġcontrat": 3039,
      "Ã¨nes": 3040,
      "ĠWe": 3041,
      "Ġdossier": 3042,
      "ĠÃ©quipes": 3043,
      "Ġquartier": 3044,
      "ĠRussie": 3045,
      "ologique": 3046,
      "Ġsimple": 3047,
      "ĠcommunautÃ©": 3048,
      "Ġkilom": 3049,
      "Ġcelles": 3050,
      "Ġfab": 3051,
      "iver": 3052,
      "tiÃ©": 3053,
      "Ġfall": 3054,
      "Ġenfin": 3055,
      "ĠchaÃ®": 3056,
      "Ġve": 3057,
      "ĠNo": 3058,
      "ĠÃ©tat": 3059,
      "vie": 3060,
      "Ġenreg": 3061,
      "ĠDon": 3062,
      "Ġcommence": 3063,
      "ĠBou": 3064,
      "urant": 3065,
      "ĠcoÃ»": 3066,
      "Ġquestions": 3067,
      "ĠCert": 3068,
      "Ġfix": 3069,
      "sh": 3070,
      "Ġthat": 3071,
      "ett": 3072,
      "ĠTrump": 3073,
      "fait": 3074,
      "Ġconfiance": 3075,
      "Ġremar": 3076,
      "ĠappelÃ©": 3077,
      "Ã¨mes": 3078,
      "Ġprise": 3079,
      "Ġinde": 3080,
      "ergie": 3081,
      "Ġmess": 3082,
      "\")": 3083,
      "Ġveu": 3084,
      "Ġdeme": 3085,
      "Ġforte": 3086,
      "Ġsortir": 3087,
      "Ġvictimes": 3088,
      "Ġlibre": 3089,
      "ĠMor": 3090,
      "bert": 3091,
      "ĠGeor": 3092,
      "ĠEm": 3093,
      "tade": 3094,
      "ĠpubliÃ©": 3095,
      "Ġsoutien": 3096,
      "ĠrÃ©sid": 3097,
      "resp": 3098,
      "ĠMarie": 3099,
      "cide": 3100,
      "ĠsÃ©lection": 3101,
      "cal": 3102,
      "Ġmoyen": 3103,
      "ĠEl": 3104,
      "ĠprÃ©par": 3105,
      "ĠPhilippe": 3106,
      "assÃ©": 3107,
      "hum": 3108,
      "ministration": 3109,
      "Ġprovince": 3110,
      "Ġ192": 3111,
      "Ġital": 3112,
      "Ġplais": 3113,
      "Ġhistoire": 3114,
      "Ġparticulier": 3115,
      "Ġsoli": 3116,
      "Ġgroupes": 3117,
      "urr": 3118,
      "reur": 3119,
      "rÃ©taire": 3120,
      "parole": 3121,
      "Ġ31": 3122,
      "Ġnoir": 3123,
      "ĠBelg": 3124,
      "frique": 3125,
      "Ġfle": 3126,
      "ailles": 3127,
      "Ġquelqu": 3128,
      "ĠgÃ©nÃ©rale": 3129,
      "ige": 3130,
      "Ġaim": 3131,
      "Ġinternational": 3132,
      "Ġ&": 3133,
      "ĠBern": 3134,
      "isl": 3135,
      "idÃ©e": 3136,
      "lan": 3137,
      "Ġpouvait": 3138,
      "arm": 3139,
      "Ġir": 3140,
      "Ġincl": 3141,
      "Ġdois": 3142,
      "imm": 3143,
      "ĠOb": 3144,
      "ĠcomplÃ¨": 3145,
      "Ã©min": 3146,
      "Ġfaci": 3147,
      "lique": 3148,
      "ulaire": 3149,
      "ini": 3150,
      "Ġfaisait": 3151,
      "ĠTour": 3152,
      "Ġfou": 3153,
      "Ġmanque": 3154,
      "Ġmand": 3155,
      "ĠTur": 3156,
      "ĠPS": 3157,
      "ister": 3158,
      "Ġproche": 3159,
      "Ġalbum": 3160,
      "AS": 3161,
      "orde": 3162,
      "Ġreti": 3163,
      "ae": 3164,
      "ĠexpliquÃ©": 3165,
      "Ġchance": 3166,
      "onneur": 3167,
      "Ġoccup": 3168,
      "val": 3169,
      "ĠdiffÃ©rents": 3170,
      "yth": 3171,
      "tissement": 3172,
      "Ġprochaine": 3173,
      "En": 3174,
      "idi": 3175,
      "esseur": 3176,
      "Ġimpos": 3177,
      "pir": 3178,
      "osc": 3179,
      "Ġ2006": 3180,
      "ĠHoll": 3181,
      "Ġpuiss": 3182,
      "illon": 3183,
      "ĠVille": 3184,
      "Ġtravailler": 3185,
      "iez": 3186,
      "Ġamis": 3187,
      "und": 3188,
      "quÃ©s": 3189,
      "ER": 3190,
      "Ġbritannique": 3191,
      "issent": 3192,
      "ĠMc": 3193,
      "Ġrang": 3194,
      "Ġcompris": 3195,
      "ĠRobert": 3196,
      "ĠvidÃ©o": 3197,
      "ĠXV": 3198,
      "ĠDr": 3199,
      "ung": 3200,
      "lir": 3201,
      "Ġprote": 3202,
      "ĠqualitÃ©": 3203,
      "Ġpassage": 3204,
      "ĠconsÃ©qu": 3205,
      "Ġchampionnat": 3206,
      "Ĥ¬": 3207,
      "ĠstratÃ©g": 3208,
      "chant": 3209,
      "Ġges": 3210,
      "ĠTe": 3211,
      "Ġfrapp": 3212,
      "âĤ¬": 3213,
      "13": 3214,
      "Ġclim": 3215,
      "spagne": 3216,
      "Ã§ant": 3217,
      "sieur": 3218,
      "con": 3219,
      "ĠtÃ´t": 3220,
      "AN": 3221,
      "Ġcandidat": 3222,
      "Ġcontinu": 3223,
      "itable": 3224,
      "Ġvain": 3225,
      "Ġsalari": 3226,
      "ĠQui": 3227,
      "Ã¢ge": 3228,
      "ington": 3229,
      "utÃ©s": 3230,
      "Ã©rience": 3231,
      "Ġpein": 3232,
      "Ġeffectu": 3233,
      "Ã´me": 3234,
      "Ġtribun": 3235,
      "ĠLondres": 3236,
      "Ġpot": 3237,
      "niques": 3238,
      "aces": 3239,
      "ĠDÃ©": 3240,
      "Ġvote": 3241,
      "Ġdevenir": 3242,
      "Ġaf": 3243,
      "Ġsorte": 3244,
      "ĠSer": 3245,
      "Ġrestaur": 3246,
      "ĠnommÃ©": 3247,
      "ĠmatiÃ¨re": 3248,
      "entielle": 3249,
      "Ġali": 3250,
      "Ġvoie": 3251,
      "Ġsusp": 3252,
      "rÃ©es": 3253,
      "ive": 3254,
      "Mar": 3255,
      "ĠparticuliÃ¨rement": 3256,
      "Ġait": 3257,
      "ĠCharles": 3258,
      "Ġtel": 3259,
      "ĠPremier": 3260,
      "Ġconsac": 3261,
      "lÃ¨mes": 3262,
      "indi": 3263,
      "ticle": 3264,
      "ĠFor": 3265,
      "Ġsold": 3266,
      "Ġretrouver": 3267,
      "Ġessay": 3268,
      "ĠrÃ©gime": 3269,
      "ĠMÃªme": 3270,
      "Ġrouge": 3271,
      "Ġaction": 3272,
      "Ġpeur": 3273,
      "ks": 3274,
      "Ġphysi": 3275,
      "ĠrÃ©alisÃ©": 3276,
      "Ġfonds": 3277,
      "Ġ2000": 3278,
      "Ġtal": 3279,
      "Ġlaisse": 3280,
      "Ġtest": 3281,
      "Ġdesc": 3282,
      "ĠÃ©m": 3283,
      "enue": 3284,
      "ĠEd": 3285,
      "ĠnumÃ©ro": 3286,
      "%.": 3287,
      "On": 3288,
      "Ġcab": 3289,
      "otte": 3290,
      "ilan": 3291,
      "Ġenvoy": 3292,
      "aritÃ©": 3293,
      "ardin": 3294,
      "Ġfaisant": 3295,
      "ĠmÃ©d": 3296,
      "AFP": 3297,
      "aitement": 3298,
      "ublic": 3299,
      "ĠAt": 3300,
      "Ġadop": 3301,
      "Ġcircul": 3302,
      "Ġtax": 3303,
      "Ġcath": 3304,
      "Ġcommunes": 3305,
      "Ġchin": 3306,
      "Ġextr": 3307,
      "Ġso": 3308,
      "ĠcÅĵur": 3309,
      "ĠeuropÃ©en": 3310,
      "ary": 3311,
      "ĠBan": 3312,
      "cie": 3313,
      "ĠactivitÃ©s": 3314,
      "ĠproblÃ¨mes": 3315,
      "itation": 3316,
      "ĠAinsi": 3317,
      "ĠInter": 3318,
      "Ġenfant": 3319,
      "Ġvari": 3320,
      "yle": 3321,
      "RE": 3322,
      "Ġvaleur": 3323,
      "Ġwith": 3324,
      "tivement": 3325,
      "Ġvir": 3326,
      "Ġfisc": 3327,
      "ucteur": 3328,
      "Ġrende": 3329,
      "Ġbuts": 3330,
      "midi": 3331,
      "Ġpol": 3332,
      "Ġmains": 3333,
      "ĠhÃ´": 3334,
      "Ġfourn": 3335,
      "Ġchampion": 3336,
      "Ġmission": 3337,
      "tim": 3338,
      "ĠAc": 3339,
      "Ġcollab": 3340,
      "oncer": 3341,
      "Ã©cois": 3342,
      "ted": 3343,
      "cience": 3344,
      "Ġversion": 3345,
      "Ġ60": 3346,
      "ĠÃ©cl": 3347,
      "ĠbÃ©nÃ©fici": 3348,
      "red": 3349,
      "ĠkilomÃ¨tres": 3350,
      "oquÃ©": 3351,
      "Ã©glise": 3352,
      "Ġrece": 3353,
      "affaires": 3354,
      "Ġvivre": 3355,
      "Ġvoi": 3356,
      "Ġblanc": 3357,
      "Ġpouss": 3358,
      "sur": 3359,
      "ĠsoirÃ©e": 3360,
      "Ġcat": 3361,
      "ĠsecrÃ©taire": 3362,
      "Ġprojets": 3363,
      "mÃ©s": 3364,
      "Ġmaladi": 3365,
      "Ġpoliciers": 3366,
      "Ã©conomie": 3367,
      "usÃ©e": 3368,
      "obile": 3369,
      "onse": 3370,
      "onner": 3371,
      "uments": 3372,
      "Ġaffirme": 3373,
      "anim": 3374,
      "ĠHen": 3375,
      "vin": 3376,
      "aign": 3377,
      "oÃ®": 3378,
      "Ġfaits": 3379,
      "ĠGran": 3380,
      "Ġtexte": 3381,
      "bes": 3382,
      "Ġoub": 3383,
      "'\"": 3384,
      "Ġmatchs": 3385,
      "ĠindÃ©p": 3386,
      "mettre": 3387,
      "minist": 3388,
      "ani": 3389,
      "odes": 3390,
      "ĠaffirmÃ©": 3391,
      "prÃ©s": 3392,
      "itant": 3393,
      "dire": 3394,
      "Ġprim": 3395,
      "ĠPort": 3396,
      "ĠlibertÃ©": 3397,
      "ĠLu": 3398,
      "ĠmoitiÃ©": 3399,
      "ĠdÃ©termin": 3400,
      "Ġ500": 3401,
      "Ġdevenu": 3402,
      "veill": 3403,
      "ĠprÃ©cise": 3404,
      "Ġfron": 3405,
      "Ġgaz": 3406,
      "Ġsociaux": 3407,
      "aime": 3408,
      "ĠPuis": 3409,
      "Ġweek": 3410,
      "gent": 3411,
      "del": 3412,
      "Ġcertain": 3413,
      "rap": 3414,
      "Ġvisite": 3415,
      "ĠÃ©lÃ¨": 3416,
      "Ġindustri": 3417,
      "eth": 3418,
      "ĠSes": 3419,
      "ĠRich": 3420,
      "Ġpermettre": 3421,
      "Ġactuellement": 3422,
      "ĠcommencÃ©": 3423,
      "ĠSam": 3424,
      "Ġatteint": 3425,
      "inte": 3426,
      "Ġdouble": 3427,
      "ulÃ©": 3428,
      "Ġdiz": 3429,
      "Ġrasse": 3430,
      "Ġchacun": 3431,
      "Ġremplac": 3432,
      "tiste": 3433,
      "ament": 3434,
      "ĠdÃ©bat": 3435,
      "ĠmÃ©dias": 3436,
      "yd": 3437,
      "truction": 3438,
      "ĠÃ©tudes": 3439,
      "ĠFace": 3440,
      "Ġlesqu": 3441,
      "Ġpuisque": 3442,
      "amour": 3443,
      "As": 3444,
      "Ġrecord": 3445,
      "ĠJacques": 3446,
      "Ġhas": 3447,
      "Ġmoyens": 3448,
      "semblÃ©e": 3449,
      "ĠcinÃ©ma": 3450,
      "respond": 3451,
      "Ġplate": 3452,
      "Ġvictime": 3453,
      "Ġcompar": 3454,
      "ĠMartin": 3455,
      "ucation": 3456,
      "ĠmÃ©c": 3457,
      "ĠÃ©vÃ©": 3458,
      "terre": 3459,
      "11": 3460,
      "Ġvilles": 3461,
      "vu": 3462,
      "ĠpÃ©t": 3463,
      "Ġ...": 3464,
      "Ġmondial": 3465,
      "Ġaffaires": 3466,
      "organisation": 3467,
      "Ġindivid": 3468,
      "tait": 3469,
      "Ġtir": 3470,
      "Ġchambre": 3471,
      "Ã©tÃ©s": 3472,
      "ligne": 3473,
      "issant": 3474,
      "Ġpsy": 3475,
      "ĠdiffÃ©rentes": 3476,
      "tives": 3477,
      "arriv": 3478,
      "Ġcoeur": 3479,
      "uct": 3480,
      "Ġcontribu": 3481,
      "alisÃ©": 3482,
      "Ġimportante": 3483,
      "alog": 3484,
      "ĠsÃ©ri": 3485,
      "ario": 3486,
      "ĠrÃ©cl": 3487,
      "ides": 3488,
      "Ġarrive": 3489,
      "Ġsoient": 3490,
      "Ġbras": 3491,
      "indre": 3492,
      "lication": 3493,
      "ĠdÃ©putÃ©": 3494,
      "Ã®le": 3495,
      "uxelles": 3496,
      "ĠJuli": 3497,
      "Ġdavantage": 3498,
      "lissement": 3499,
      "Ġcircons": 3500,
      "ĠLy": 3501,
      "enquÃªte": 3502,
      "ĠquÃ©b": 3503,
      "Ġmarche": 3504,
      "ĠMa": 3505,
      "entif": 3506,
      "ĠsiÃ¨ge": 3507,
      "Ġprincipal": 3508,
      "auff": 3509,
      "_,": 3510,
      "ĠBelgique": 3511,
      "ĠBeau": 3512,
      "Ġstu": 3513,
      "tir": 3514,
      "ĠJapon": 3515,
      "Ġbureau": 3516,
      "Ġtrad": 3517,
      "Ã©tat": 3518,
      "Ġscientif": 3519,
      "Ġsauv": 3520,
      "titution": 3521,
      "Ã©sil": 3522,
      "Ġsuivi": 3523,
      "Ġtransf": 3524,
      "Ġmultip": 3525,
      "Ġdemander": 3526,
      "Ġpatron": 3527,
      "Ġpri": 3528,
      "Ġlangue": 3529,
      "actÃ©": 3530,
      "ministra": 3531,
      "Ã©rÃ©e": 3532,
      "Ġtran": 3533,
      "Ġcertaine": 3534,
      "ĠcrÃ©er": 3535,
      "ael": 3536,
      "Ġgagner": 3537,
      "nie": 3538,
      "Ã©dÃ©": 3539,
      "universitÃ©": 3540,
      "Ġiss": 3541,
      "Ġcompos": 3542,
      "dj": 3543,
      "ĠfÃ©min": 3544,
      "Ġrusse": 3545,
      "car": 3546,
      "ĠCo": 3547,
      "ĠCap": 3548,
      "Ġroman": 3549,
      "Ġcontinue": 3550,
      "ĠcrÃ©Ã©": 3551,
      "abs": 3552,
      "isant": 3553,
      "Ã¨que": 3554,
      "objet": 3555,
      "Ġpoursuit": 3556,
      "Ġmauvais": 3557,
      "Ġsan": 3558,
      "erver": 3559,
      "Ġcourt": 3560,
      "ĠrÃ©guli": 3561,
      "Ġlutte": 3562,
      "ocat": 3563,
      ".--": 3564,
      "Ġmeilleure": 3565,
      "ĠtÃ©lÃ©vision": 3566,
      "Ġtravaille": 3567,
      "user": 3568,
      "Ġchan": 3569,
      "dessus": 3570,
      "ĠBon": 3571,
      "Ġpropose": 3572,
      "Ġclassi": 3573,
      "Ġinqui": 3574,
      "ĠStr": 3575,
      "olique": 3576,
      "ĠprÃ©vu": 3577,
      "ustrie": 3578,
      "ĠElles": 3579,
      "Ġetc": 3580,
      "ott": 3581,
      "ester": 3582,
      "Ġhors": 3583,
      "ĠÃ©lec": 3584,
      "Ãªt": 3585,
      "ray": 3586,
      "Ġassure": 3587,
      "pt": 3588,
      "Ġvente": 3589,
      "Ġrespect": 3590,
      "fier": 3591,
      "Ġpratique": 3592,
      "Ãªche": 3593,
      "cent": 3594,
      "ĠconfÃ©rence": 3595,
      "ĠBour": 3596,
      "Ġocc": 3597,
      "Ġretrouve": 3598,
      "Ġrenfor": 3599,
      "%,": 3600,
      "tig": 3601,
      "gle": 3602,
      "ĠNouv": 3603,
      "ĠNotre": 3604,
      "Ġcorrespond": 3605,
      "Ã¨tre": 3606,
      "Ġcommission": 3607,
      "Ġparlement": 3608,
      "berg": 3609,
      "estation": 3610,
      "ĠjouÃ©": 3611,
      "ĠcÃ©lÃ¨": 3612,
      "opÃ©ration": 3613,
      "Ġquatri": 3614,
      "Ġ2005": 3615,
      "ĠintÃ©ress": 3616,
      "Ġ,": 3617,
      "Ġ80": 3618,
      "dici": 3619,
      "fe": 3620,
      "Ġpron": 3621,
      "isse": 3622,
      "osse": 3623,
      "Ġclassement": 3624,
      "ĠlÃ©gisl": 3625,
      "Ã©tude": 3626,
      "ĠdÃ©r": 3627,
      "Ġsociale": 3628,
      "anie": 3629,
      "ĠCet": 3630,
      "onique": 3631,
      "fique": 3632,
      "Ġobserv": 3633,
      "ĠBruxelles": 3634,
      "ĠTrois": 3635,
      "ĠRou": 3636,
      "cer": 3637,
      "Ġquotidien": 3638,
      "Ġneuf": 3639,
      "olymp": 3640,
      "Ġsoup": 3641,
      "ĠcompÃ©tition": 3642,
      "affaire": 3643,
      "rich": 3644,
      "administration": 3645,
      "import": 3646,
      "Ã¡": 3647,
      "ĠHam": 3648,
      "acement": 3649,
      "Ġanglais": 3650,
      "Ġpeuple": 3651,
      "inves": 3652,
      "ĠquatriÃ¨me": 3653,
      "Ġprincipale": 3654,
      "Nous": 3655,
      "uisse": 3656,
      "Ġaband": 3657,
      "Ġmodi": 3658,
      "Ġ190": 3659,
      "ĠmatÃ©ri": 3660,
      "Ġcentr": 3661,
      "ĠEnfin": 3662,
      "Ġfit": 3663,
      "ĠPer": 3664,
      "Ġaccompagn": 3665,
      "Ã¶": 3666,
      "Ġ35": 3667,
      "Ġmontre": 3668,
      "ĠdÃ©couvert": 3669,
      "ĠCentre": 3670,
      "hi": 3671,
      "Ġgestion": 3672,
      "limin": 3673,
      "Ġcontinuer": 3674,
      "opposition": 3675,
      "Ġnorm": 3676,
      "Ġly": 3677,
      "Ġporter": 3678,
      "Ġlieux": 3679,
      "Ġdocument": 3680,
      "gement": 3681,
      "enses": 3682,
      "Ġmots": 3683,
      "Ã©taient": 3684,
      "Ġfinance": 3685,
      "Ġlivres": 3686,
      "ĠdÃ©tr": 3687,
      "rement": 3688,
      "Ġmariage": 3689,
      "Ã¤": 3690,
      "Ġpaix": 3691,
      "Ġhabitu": 3692,
      "Ġolymp": 3693,
      "Ġconstat": 3694,
      "Ġsouligne": 3695,
      "ĠPat": 3696,
      "Ġprotection": 3697,
      "Ġindique": 3698,
      "Ġgal": 3699,
      "Ġconvain": 3700,
      "ĠthÃ©Ã¢tre": 3701,
      "Ġindex": 3702,
      "cription": 3703,
      "Ġinvestis": 3704,
      "Ġtribunal": 3705,
      "ĠprÃªt": 3706,
      "Ġvieux": 3707,
      "Ġchercher": 3708,
      "Ġdistribu": 3709,
      "oleil": 3710,
      "abil": 3711,
      "uÃ©": 3712,
      "Ã§ons": 3713,
      "Ġscol": 3714,
      "association": 3715,
      "ĠrÃ©sultat": 3716,
      "AR": 3717,
      "Ġdra": 3718,
      "rick": 3719,
      "Ġpersonnel": 3720,
      "Ġspectacle": 3721,
      "Ã©ros": 3722,
      "ĠdÃ©tail": 3723,
      "Ġpression": 3724,
      "Ġpourraient": 3725,
      "ĠopÃ©ration": 3726,
      "ĠprÃ©p": 3727,
      "Ġrelations": 3728,
      "ĠFranc": 3729,
      "Ġmas": 3730,
      "run": 3731,
      "Ġfilles": 3732,
      "ĠCommission": 3733,
      "Ġaccus": 3734,
      "ham": 3735,
      "UniversitÃ©": 3736,
      "ĠÃ©qu": 3737,
      "Ġwas": 3738,
      "Ġchap": 3739,
      "Ġsommet": 3740,
      "Ġcentrale": 3741,
      "Ġoffre": 3742,
      "ĠarrÃªtÃ©": 3743,
      "Ġdiscours": 3744,
      "Allemagne": 3745,
      "ĠPal": 3746,
      "assin": 3747,
      "Ġcer": 3748,
      "ĠprocÃ¨s": 3749,
      "Ġterror": 3750,
      "of": 3751,
      "nies": 3752,
      "Ġchiffre": 3753,
      "Ġdomaine": 3754,
      "ignes": 3755,
      "Ġrele": 3756,
      "Est": 3757,
      "ĠPri": 3758,
      "ĠDel": 3759,
      "ĠmodÃ¨le": 3760,
      "ih": 3761,
      "omas": 3762,
      "Ġstation": 3763,
      "ĠrÃ©alitÃ©": 3764,
      "Ġpleine": 3765,
      "ye": 3766,
      "Ġnote": 3767,
      "Ã©mie": 3768,
      "Ġsurf": 3769,
      "Ġpen": 3770,
      "ĠCanadi": 3771,
      "otion": 3772,
      "ĠchaÃ®ne": 3773,
      "ĠcÃ´t": 3774,
      "25": 3775,
      "rav": 3776,
      "Ġcop": 3777,
      "titut": 3778,
      "Ġajoute": 3779,
      "ĠGen": 3780,
      "Ġannonce": 3781,
      "Ġchang": 3782,
      "ĠSan": 3783,
      "Ġquin": 3784,
      "Ġmandat": 3785,
      "IS": 3786,
      "Ġinformations": 3787,
      "ĠtuÃ©": 3788,
      "arrivÃ©e": 3789,
      "mant": 3790,
      "Ġlab": 3791,
      "Ġlettre": 3792,
      "cture": 3793,
      "Ġadministra": 3794,
      "Ġhom": 3795,
      "Ġmobil": 3796,
      "Ġcoups": 3797,
      "Ġalli": 3798,
      "ky": 3799,
      "Ġchanson": 3800,
      "ĠKe": 3801,
      "Ġfaud": 3802,
      "AC": 3803,
      "ĠespÃ¨ce": 3804,
      "Ġretrait": 3805,
      "Ġvice": 3806,
      "ĠnÃ©cessaire": 3807,
      "ulture": 3808,
      "ĠdÃ©li": 3809,
      "Ġcroire": 3810,
      "iÃ©s": 3811,
      "ĠprÃ©sentÃ©": 3812,
      "ĠfÃªte": 3813,
      "Ġclients": 3814,
      "Ġfamilles": 3815,
      "Ġrendu": 3816,
      "ĠÃ©lÃ©": 3817,
      "Ġcroy": 3818,
      "ĠutilisÃ©": 3819,
      "nov": 3820,
      "yr": 3821,
      "intÃ©rieur": 3822,
      "ulation": 3823,
      "ĠmÃ©m": 3824,
      "ignement": 3825,
      "Ġsigne": 3826,
      "Ġfus": 3827,
      "Ġquant": 3828,
      "mine": 3829,
      "eaux": 3830,
      "gÃ©e": 3831,
      "agnol": 3832,
      "Ġ+": 3833,
      "Ġjudici": 3834,
      "iÃ¨res": 3835,
      "Ġaffaire": 3836,
      "Ġoutre": 3837,
      "Ġmode": 3838,
      "Ġfour": 3839,
      "ashington": 3840,
      "Ġretraite": 3841,
      "Ġnour": 3842,
      "Ġvoulait": 3843,
      "ĠSans": 3844,
      "Ġprofesseur": 3845,
      "otes": 3846,
      "sie": 3847,
      "Ġendroit": 3848,
      "ĠNor": 3849,
      "ĠCa": 3850,
      "Ġbataille": 3851,
      "itter": 3852,
      "istance": 3853,
      "Ġsent": 3854,
      "Ġinscrit": 3855,
      "Ġbudget": 3856,
      "ousse": 3857,
      "Ġfilms": 3858,
      "Ġexcl": 3859,
      "erait": 3860,
      "Ġarr": 3861,
      "Ġfurent": 3862,
      "Ġchanger": 3863,
      "ĠTous": 3864,
      "ws": 3865,
      "200": 3866,
      "ĠcatÃ©g": 3867,
      "ĠdÃ©mar": 3868,
      "own": 3869,
      "ĠMi": 3870,
      "Ġ45": 3871,
      "ĠrÃ©forme": 3872,
      "ĠRom": 3873,
      "ĠreprÃ©sente": 3874,
      "ĠchÃ¢teau": 3875,
      "Ġinstall": 3876,
      "esti": 3877,
      "Ġorigin": 3878,
      "ĠrÃ©union": 3879,
      "Ã©lection": 3880,
      "net": 3881,
      "kr": 3882,
      "roch": 3883,
      "rac": 3884,
      "ĠTor": 3885,
      "va": 3886,
      "ĠBre": 3887,
      "Ġmillion": 3888,
      "ĠlaissÃ©": 3889,
      "key": 3890,
      "ĠtÃ©moign": 3891,
      "du": 3892,
      "ĠpiÃ¨ce": 3893,
      "ĠOh": 3894,
      "ĠChrist": 3895,
      "ultÃ©": 3896,
      "Ġallait": 3897,
      "Ġuti": 3898,
      "ĠWashington": 3899,
      "euvre": 3900,
      "ĠDom": 3901,
      "occup": 3902,
      "Ã©tab": 3903,
      "uclÃ©": 3904,
      "ĠCam": 3905,
      "ĠdÃ©l": 3906,
      "oirs": 3907,
      "Ġparties": 3908,
      "ommage": 3909,
      "Ġpopulaire": 3910,
      "rÃ¨s": 3911,
      "Ġrappelle": 3912,
      "Ġconnaiss": 3913,
      "Ã©rÃ©s": 3914,
      "Ġobtenu": 3915,
      "ĠKar": 3916,
      "Ġfaveur": 3917,
      "Ġveulent": 3918,
      "entrer": 3919,
      "Ġcru": 3920,
      "Ġmour": 3921,
      "inet": 3922,
      "ĠHollande": 3923,
      "ĠSoci": 3924,
      "Ġconcurr": 3925,
      "Ġvoulu": 3926,
      "vÃ©e": 3927,
      "yse": 3928,
      "ĠsÃ©par": 3929,
      "ĠpÃ©tro": 3930,
      "Ġparf": 3931,
      "ĠdÃ©ch": 3932,
      "emploi": 3933,
      "Ġtraditionn": 3934,
      "tian": 3935,
      "ĠSc": 3936,
      "Ã©nom": 3937,
      "Ġ70": 3938,
      "ibles": 3939,
      "ney": 3940,
      "Ġchangement": 3941,
      "40": 3942,
      "Ġcomporte": 3943,
      "ĠimmÃ©di": 3944,
      "Ġbour": 3945,
      "ientÃ´t": 3946,
      "Ġtrim": 3947,
      "ĠCependant": 3948,
      "actu": 3949,
      "ĠÃ©lu": 3950,
      "Ġcommerce": 3951,
      "ĠJu": 3952,
      "Ġfera": 3953,
      "cÃ©e": 3954,
      "venir": 3955,
      "Ġpatri": 3956,
      "Ġsimplement": 3957,
      "usses": 3958,
      "Ġ2004": 3959,
      "enez": 3960,
      "Ġnul": 3961,
      "ĠâĤ¬": 3962,
      "Ġpublics": 3963,
      "fice": 3964,
      "ĠEur": 3965,
      "Ġstade": 3966,
      "Ã³": 3967,
      "ressi": 3968,
      "UE": 3969,
      "Ġrevenir": 3970,
      "ĠPendant": 3971,
      "Ġmilliers": 3972,
      "istan": 3973,
      "Ġsurpr": 3974,
      "Ġplaisir": 3975,
      "Ġtenu": 3976,
      "Ġtar": 3977,
      "activitÃ©": 3978,
      "tienne": 3979,
      "Ġsim": 3980,
      "Ġpourra": 3981,
      "Ġfranc": 3982,
      "ĠsupplÃ©ment": 3983,
      "ĠvolontÃ©": 3984,
      "Ġtes": 3985,
      "Ġvend": 3986,
      "ographie": 3987,
      "Ġtient": 3988,
      "Ġnouvel": 3989,
      "information": 3990,
      "Ġpont": 3991,
      "obs": 3992,
      "Ġentend": 3993,
      "ĠscÃ©n": 3994,
      "ĠmÃ©th": 3995,
      "ĠlittÃ©r": 3996,
      "asi": 3997,
      "endemain": 3998,
      "Ġprocess": 3999,
      "wa": 4000,
      "ĠremportÃ©": 4001,
      "ĠComp": 4002,
      "Ġquitter": 4003,
      "armes": 4004,
      "Ġfaute": 4005,
      "ĠrÃ©serv": 4006,
      "ĠdÃ©cis": 4007,
      "Ġprol": 4008,
      "uff": 4009,
      "oni": 4010,
      "Ġmusic": 4011,
      "Ġphil": 4012,
      "Ġexiste": 4013,
      "Ġhistorique": 4014,
      "moins": 4015,
      "fie": 4016,
      "Ġvenu": 4017,
      "ĠFer": 4018,
      "Ġcomprendre": 4019,
      "ĠarrivÃ©": 4020,
      "Ass": 4021,
      "ĠJeux": 4022,
      "arkoz": 4023,
      "ĠcomitÃ©": 4024,
      "Ġsucces": 4025,
      "ĠLi": 4026,
      "Ġtechnique": 4027,
      "org": 4028,
      "ĠestimÃ©": 4029,
      "ĠdÃ©putÃ©s": 4030,
      "expl": 4031,
      "ĠCas": 4032,
      "bas": 4033,
      "ĠrÃ©ponse": 4034,
      "Ġunique": 4035,
      "ueil": 4036,
      "Ġcouple": 4037,
      "Ġfigure": 4038,
      "Ġobjet": 4039,
      "esprit": 4040,
      "ĠTw": 4041,
      "ĠvÃ©ritable": 4042,
      "Ġconcernant": 4043,
      "ĠBro": 4044,
      "eront": 4045,
      "Ġaliment": 4046,
      "Ġlendemain": 4047,
      "aye": 4048,
      "ren": 4049,
      "Ġcandidats": 4050,
      "trait": 4051,
      "Ġentendu": 4052,
      "ola": 4053,
      "issait": 4054,
      "hÃ´pital": 4055,
      "ino": 4056,
      "ĠSim": 4057,
      "ĠAvant": 4058,
      "IN": 4059,
      "Ġble": 4060,
      "bres": 4061,
      "Ġsport": 4062,
      "ĠParlement": 4063,
      "itude": 4064,
      "oids": 4065,
      "outes": 4066,
      "Ġsomme": 4067,
      "Ġfamili": 4068,
      "orth": 4069,
      "ĠdÃ©sign": 4070,
      "Ġmur": 4071,
      "Ġsil": 4072,
      "ĠVan": 4073,
      "Ġdemain": 4074,
      "ĠMacron": 4075,
      "ĠRÃ©": 4076,
      "Ġposi": 4077,
      "honneur": 4078,
      "da": 4079,
      "Ġdispon": 4080,
      "djvu": 4081,
      "Ã©rop": 4082,
      "ĠWilli": 4083,
      "cemment": 4084,
      "ĠVic": 4085,
      "ĠParmi": 4086,
      "Ġjeux": 4087,
      "ĠcontrÃ´": 4088,
      "Ġdirigeants": 4089,
      "Ġlocaux": 4090,
      "com": 4091,
      "Ġvert": 4092,
      "ĠmÃªmes": 4093,
      "ĠMin": 4094,
      "ĠSec": 4095,
      "ĠcÃ©r": 4096,
      "ĠÃ©lector": 4097,
      "bit": 4098,
      "Ġjournaliste": 4099,
      "Ġbanc": 4100,
      "ĠAir": 4101,
      "ĠBernard": 4102,
      "ect": 4103,
      "Ġdiscussi": 4104,
      "Ġislam": 4105,
      "Ġsymb": 4106,
      "ĠCr": 4107,
      "Ġcitoyens": 4108,
      "ĠCel": 4109,
      "Ġanalys": 4110,
      "arkozy": 4111,
      "dio": 4112,
      "Ġchinois": 4113,
      "ouvez": 4114,
      "roÃ¯": 4115,
      "Ġagric": 4116,
      "Ġgri": 4117,
      "demment": 4118,
      "ĠprÃ©sidentielle": 4119,
      "orn": 4120,
      "Ġ189": 4121,
      "Ã¨les": 4122,
      "Ġreprises": 4123,
      "ĠamÃ©li": 4124,
      "Ġtaille": 4125,
      "Ġstyle": 4126,
      "asses": 4127,
      "Ã©ment": 4128,
      "Ġconcert": 4129,
      "Ġmilitaires": 4130,
      "ĠassurÃ©": 4131,
      "ura": 4132,
      "ĠnuclÃ©": 4133,
      "Ġchoisi": 4134,
      "avenir": 4135,
      "ranger": 4136,
      "Ġrendez": 4137,
      "ĠsalariÃ©s": 4138,
      "Ġhaute": 4139,
      "Ġpayer": 4140,
      "Ġchant": 4141,
      "ucture": 4142,
      "ker": 4143,
      "ĠToute": 4144,
      "Ġpetites": 4145,
      "AssemblÃ©e": 4146,
      "Ġcaract": 4147,
      "tÃ©es": 4148,
      "onge": 4149,
      "Ġrevanche": 4150,
      "ologue": 4151,
      "Ġcompter": 4152,
      "Ġferme": 4153,
      "Ġexist": 4154,
      "Ġpreuve": 4155,
      "Ġprocessus": 4156,
      "Ġtournoi": 4157,
      "Ġsatis": 4158,
      "Ġcuis": 4159,
      "avez": 4160,
      "ĠFl": 4161,
      "Ã©nergie": 4162,
      "ĠrÃ©pondre": 4163,
      "ĠconnaÃ®t": 4164,
      "ĠmarchÃ©s": 4165,
      "cier": 4166,
      "Ġaider": 4167,
      "Ġlire": 4168,
      "Ã©rant": 4169,
      "lande": 4170,
      "Ġfaible": 4171,
      "Ġauteur": 4172,
      "ouÃ©": 4173,
      "ĠEntre": 4174,
      "intÃ©rÃªt": 4175,
      "ĠGal": 4176,
      "Ġfini": 4177,
      "Ġretourn": 4178,
      "ĠSarkozy": 4179,
      "pel": 4180,
      "ĠmaÃ®tre": 4181,
      "ĠSÃ©n": 4182,
      "ĠrÃ©cup": 4183,
      "ĠbÃ¢timent": 4184,
      "Ġja": 4185,
      "ĠconnaÃ®tre": 4186,
      "ĠcÃ´tÃ©s": 4187,
      "Ġsymp": 4188,
      "ĠnÃ©e": 4189,
      "ĠÃ©lÃ¨ves": 4190,
      "manuel": 4191,
      "Ġsoldats": 4192,
      "ĠÃ©lÃ©ments": 4193,
      "auc": 4194,
      "ĠidÃ©e": 4195,
      "ater": 4196,
      "ĠGrande": 4197,
      "ĠDonald": 4198,
      "Ġit": 4199,
      "ĠGo": 4200,
      "Ġmeurt": 4201,
      "gen": 4202,
      "chÃ©e": 4203,
      "ĠVer": 4204,
      "ĠÃ©lus": 4205,
      "Ġbanque": 4206,
      "Ġcourant": 4207,
      "ĠGuerre": 4208,
      "oÃ¹": 4209,
      "Ġraconte": 4210,
      "Ġresponsables": 4211,
      "mÃ©es": 4212,
      "ĠÃ©viter": 4213,
      "ĠMalgrÃ©": 4214,
      "eld": 4215,
      "ĠSyrie": 4216,
      "Ġvoil": 4217,
      "ian": 4218,
      "ĠGar": 4219,
      "ĠrÃ©par": 4220,
      "alisme": 4221,
      "annonce": 4222,
      "Ġcomplex": 4223,
      "Ġarriver": 4224,
      "ĠrÃ©gions": 4225,
      "Ġdomicile": 4226,
      "Ġcapitaine": 4227,
      "rak": 4228,
      "mann": 4229,
      "Ã©dÃ©ration": 4230,
      "itÃ©e": 4231,
      "Ġsouhaite": 4232,
      "Ġtrou": 4233,
      "ĠcÃ©lÃ¨bre": 4234,
      "urgence": 4235,
      "ĠXI": 4236,
      "Ġarmes": 4237,
      "ĠpiÃ¨ces": 4238,
      "ld": 4239,
      "Ġmessage": 4240,
      "Ġvitesse": 4241,
      "60": 4242,
      "Ġinterpr": 4243,
      "roph": 4244,
      "ilib": 4245,
      "Ġbomb": 4246,
      "landais": 4247,
      "ĠThomas": 4248,
      "Ġtre": 4249,
      "Ġpau": 4250,
      "Ġdivision": 4251,
      "uels": 4252,
      "ĠRome": 4253,
      "ĠBas": 4254,
      "ĠdÃ©faite": 4255,
      "Ġcarte": 4256,
      "ives": 4257,
      "ĠApp": 4258,
      "na": 4259,
      "Ġ300": 4260,
      "Ã¢che": 4261,
      "Ġglob": 4262,
      "ĠDis": 4263,
      "actÃ©ris": 4264,
      "anmoins": 4265,
      "hors": 4266,
      "ĠCont": 4267,
      "Ġbande": 4268,
      "ĠbientÃ´t": 4269,
      "ĠWilliam": 4270,
      "Ġraisons": 4271,
      "ĠComm": 4272,
      "Ġ188": 4273,
      "Ġphysique": 4274,
      "Ġmaladie": 4275,
      "arri": 4276,
      "Ġpartout": 4277,
      "Ã©raux": 4278,
      "Ġsurv": 4279,
      "industrie": 4280,
      "nel": 4281,
      "ĠrÃ©seaux": 4282,
      "Ġrav": 4283,
      "Ġdirectement": 4284,
      "Ġsuivre": 4285,
      "ĠCal": 4286,
      "Ġfront": 4287,
      "amin": 4288,
      "isÃ©e": 4289,
      "Ġfir": 4290,
      "Ã©der": 4291,
      "ĠAujourd": 4292,
      "ĠcaractÃ©ris": 4293,
      "Ġproches": 4294,
      "MP": 4295,
      "book": 4296,
      "Ġpsych": 4297,
      "Ġrob": 4298,
      "Ġfrais": 4299,
      "Ġventes": 4300,
      "Ġaide": 4301,
      "Ġnor": 4302,
      "Ġveille": 4303,
      "Ġcheval": 4304,
      "Ġdiplom": 4305,
      "oue": 4306,
      "Ġprobablement": 4307,
      "ĠToul": 4308,
      "ĠJack": 4309,
      "unis": 4310,
      "Ġtitres": 4311,
      "ension": 4312,
      "Ġrevient": 4313,
      "Ġcant": 4314,
      "ĠGl": 4315,
      "ĠDen": 4316,
      "ĠPlusieurs": 4317,
      "apt": 4318,
      "Ġcro": 4319,
      "Ġparis": 4320,
      "Ġmoin": 4321,
      "ĠrÃ©cemment": 4322,
      "Ġdir": 4323,
      "Ġ187": 4324,
      "ĠlumiÃ¨re": 4325,
      "Ġ2020": 4326,
      "Ġparticipation": 4327,
      "Ġactions": 4328,
      "Ġlac": 4329,
      "ĠKh": 4330,
      "Ã©tend": 4331,
      "ll": 4332,
      "Ġcontraire": 4333,
      "Ġpenser": 4334,
      "ty": 4335,
      "ĠportÃ©": 4336,
      "espace": 4337,
      "Ġracont": 4338,
      "uni": 4339,
      "Ġnu": 4340,
      "Ã§u": 4341,
      "ĠDÃ¨s": 4342,
      "Ġexpri": 4343,
      "Ou": 4344,
      "Ġmach": 4345,
      "Ġvoud": 4346,
      "iennes": 4347,
      "Ġmine": 4348,
      "fication": 4349,
      "kin": 4350,
      "leur": 4351,
      "Ġfestival": 4352,
      "fort": 4353,
      "igneur": 4354,
      "ould": 4355,
      "ĠAut": 4356,
      "Ġ2003": 4357,
      "Ġarch": 4358,
      "ĠÃ©dition": 4359,
      "atement": 4360,
      "Ġboule": 4361,
      "22": 4362,
      "Ġtenir": 4363,
      "Ġhos": 4364,
      "Ġtuer": 4365,
      "outer": 4366,
      "ĠLuc": 4367,
      "ĠMichael": 4368,
      "Ġchute": 4369,
      "Ġappris": 4370,
      "ĠamÃ©ricains": 4371,
      "Ġrelation": 4372,
      "ĠrÃ©fÃ©rence": 4373,
      "ÄĤ": 4374,
      "Ġparcours": 4375,
      "Ġseraient": 4376,
      "ĠAlle": 4377,
      "tal": 4378,
      "nÃ©e": 4379,
      "atte": 4380,
      "ĠObama": 4381,
      "Ġtels": 4382,
      "ĠaÃ©ri": 4383,
      "Ġgo": 4384,
      "abb": 4385,
      "rict": 4386,
      "ĠNoÃ«l": 4387,
      "Ġpuisse": 4388,
      "attend": 4389,
      "andre": 4390,
      "uler": 4391,
      "luence": 4392,
      "ucteurs": 4393,
      "ĠsoulignÃ©": 4394,
      "Ġrevenus": 4395,
      "Ġatti": 4396,
      "Qu": 4397,
      "ĠÃ©poque": 4398,
      "Ġminim": 4399,
      "Ġhauteur": 4400,
      "ko": 4401,
      "Ġperdre": 4402,
      "Ġchiffres": 4403,
      "Ġreprise": 4404,
      "Ġorgan": 4405,
      "Ġcritique": 4406,
      "lÃ¨ve": 4407,
      "onnÃ©s": 4408,
      "ĠRo": 4409,
      "ĠrÃ¨gles": 4410,
      "ĠsignÃ©": 4411,
      "Ġrejoint": 4412,
      "Ġprincipalement": 4413,
      "Ġmeilleurs": 4414,
      "Ġmaxim": 4415,
      "Ġdimin": 4416,
      "ings": 4417,
      "Ġbre": 4418,
      "tisme": 4419,
      "nous": 4420,
      "ĠEr": 4421,
      "Ġchasse": 4422,
      "gÃ©s": 4423,
      "ĠnÃ©gociations": 4424,
      "Ġcompli": 4425,
      "Ġentreprise": 4426,
      "oulez": 4427,
      "uil": 4428,
      "autom": 4429,
      "Ġbatt": 4430,
      "Ġjapon": 4431,
      "ĠquÃ©bÃ©cois": 4432,
      "Uni": 4433,
      "ĠÃ©cri": 4434,
      "Ġconst": 4435,
      "ĠRoyaume": 4436,
      "Ġremont": 4437,
      "Ġtroupes": 4438,
      "Ġmontrer": 4439,
      "rob": 4440,
      "Ġadvers": 4441,
      "21": 4442,
      "Ġfaites": 4443,
      "Ġ90": 4444,
      "ĠdurÃ©e": 4445,
      "Italie": 4446,
      "Ġheader": 4447,
      "ĠÃ©tudiants": 4448,
      "ÃŃ": 4449,
      "ĠAss": 4450,
      "Ġ2002": 4451,
      "aliser": 4452,
      "ĠcÃ©lÃ©": 4453,
      "ultÃ©s": 4454,
      "ancÃ©": 4455,
      "glise": 4456,
      "Ã©dition": 4457,
      "ĠmÃ©l": 4458,
      "erm": 4459,
      "Ġvisage": 4460,
      "ĠAs": 4461,
      "attaque": 4462,
      "ĠcapacitÃ©": 4463,
      "ĠFlor": 4464,
      "Ġvin": 4465,
      "Ġsoi": 4466,
      "Ġlois": 4467,
      "45": 4468,
      "Ġsolution": 4469,
      "ami": 4470,
      "Ġoui": 4471,
      "Ġparticipe": 4472,
      "image": 4473,
      "uter": 4474,
      "Ġmarch": 4475,
      "dy": 4476,
      "ĠCertains": 4477,
      "ĠGre": 4478,
      "ĠarrÃªt": 4479,
      "Ġjournalistes": 4480,
      "Ġ/>": 4481,
      "Ġgui": 4482,
      "ĠNouvelle": 4483,
      "rÃ©d": 4484,
      "Ã©volution": 4485,
      "Ġstatut": 4486,
      "achat": 4487,
      "nÃ©s": 4488,
      "ĠÃ©limin": 4489,
      "ĠMus": 4490,
      "ternet": 4491,
      "ĠMes": 4492,
      "Ġsuivant": 4493,
      "Ġdevraient": 4494,
      "istÃ©": 4495,
      "Ġcomprend": 4496,
      "Ġoppos": 4497,
      "Ġremporte": 4498,
      "atre": 4499,
      "Ġdevoir": 4500,
      "allon": 4501,
      "rab": 4502,
      "ĠprÃ©senter": 4503,
      "ight": 4504,
      "ĠPays": 4505,
      "Ġreconnu": 4506,
      "areil": 4507,
      "Ġpoids": 4508,
      "Ġradio": 4509,
      "Ġbran": 4510,
      "Ġmorte": 4511,
      "venu": 4512,
      "Ġphoto": 4513,
      "Ġobtenir": 4514,
      "delÃł": 4515,
      "tÃ©roÃ¯": 4516,
      "ĠcitÃ©": 4517,
      "Ġvoulais": 4518,
      "aman": 4519,
      "Ġsources": 4520,
      "Ġprofit": 4521,
      "Ġviolence": 4522,
      "Espagne": 4523,
      "Ġbons": 4524,
      "lÃ©e": 4525,
      "Ġpert": 4526,
      "verse": 4527,
      "ĠNation": 4528,
      "ena": 4529,
      "Ġsurprise": 4530,
      "ologiques": 4531,
      "Ġanciens": 4532,
      "tellig": 4533,
      "appar": 4534,
      "Ġtend": 4535,
      "agers": 4536,
      "Ġsouvenir": 4537,
      "esses": 4538,
      "cule": 4539,
      "ĠsupÃ©rieur": 4540,
      "Ġfinal": 4541,
      "ources": 4542,
      "III": 4543,
      "Ġ2001": 4544,
      "Ġlargement": 4545,
      "ĠAh": 4546,
      "rons": 4547,
      "Ġclient": 4548,
      "Ġphilos": 4549,
      "ĠchargÃ©": 4550,
      "Ġillus": 4551,
      "Ġpersonnage": 4552,
      "ĠsÃ©n": 4553,
      "Ġfacile": 4554,
      "ĠvÃ©hicules": 4555,
      "ĠcoÃ»t": 4556,
      "ata": 4557,
      "Ġtellement": 4558,
      "Ġbus": 4559,
      "ĠmusÃ©e": 4560,
      "Ġfutur": 4561,
      "Ġviennent": 4562,
      "actions": 4563,
      "ĠSeu": 4564,
      "ĠmÃ©n": 4565,
      "heur": 4566,
      "Ġgars": 4567,
      "Ġleader": 4568,
      "Ġpuissance": 4569,
      "Ã©ralement": 4570,
      "Ġrefus": 4571,
      "agu": 4572,
      "Ġimag": 4573,
      "Ġ1990": 4574,
      "Ġinstitu": 4575,
      "Ġrecom": 4576,
      "Ġryth": 4577,
      "ĠRichard": 4578,
      "aurais": 4579,
      "abri": 4580,
      "Ġpauvre": 4581,
      "ĠpossÃ¨de": 4582,
      "ariat": 4583,
      "ockey": 4584,
      "Ġvaleurs": 4585,
      "Ġauraient": 4586,
      "unesse": 4587,
      "Ġgarder": 4588,
      "atifs": 4589,
      "Pierre": 4590,
      "ym": 4591,
      "ĠgagnÃ©": 4592,
      "isÃ©s": 4593,
      "Ġcur": 4594,
      "Ġconseiller": 4595,
      "ĠQuant": 4596,
      "Ġgrec": 4597,
      "Ġvac": 4598,
      "Ġrejet": 4599,
      "issue": 4600,
      "Ġlignes": 4601,
      "ourt": 4602,
      "Ġartistes": 4603,
      "ĠMer": 4604,
      "Ins": 4605,
      "audi": 4606,
      "Ġconsommation": 4607,
      "Ġrich": 4608,
      "tements": 4609,
      "Ġmilliard": 4610,
      "ĠpossibilitÃ©": 4611,
      "euters": 4612,
      "ĠmarquÃ©": 4613,
      "ĠconfirmÃ©": 4614,
      "jou": 4615,
      "Ġtrimestre": 4616,
      "Ġfid": 4617,
      "jour": 4618,
      "ophe": 4619,
      "ĠrÃ©duire": 4620,
      "ĠemployÃ©s": 4621,
      "onds": 4622,
      "Ġquart": 4623,
      "Ġrent": 4624,
      "Ġexcep": 4625,
      "ĠÃ©tude": 4626,
      "The": 4627,
      "ĠCong": 4628,
      "tiens": 4629,
      "Ġconstruit": 4630,
      "AT": 4631,
      "Ġimpli": 4632,
      "Ġpieds": 4633,
      "unitÃ©": 4634,
      "ĠFC": 4635,
      "yl": 4636,
      "ĠFacebook": 4637,
      "ĠAllemagne": 4638,
      "Ġrare": 4639,
      "Ġtruc": 4640,
      "Ġcrimin": 4641,
      "rien": 4642,
      "Ġpou": 4643,
      "reuse": 4644,
      "24": 4645,
      "ĠMain": 4646,
      "Ġmontant": 4647,
      "ĠvÃ©hicule": 4648,
      "acte": 4649,
      "ĠAff": 4650,
      "Ġprincipaux": 4651,
      "ĠapprÃ©": 4652,
      "autant": 4653,
      "exploit": 4654,
      "mage": 4655,
      "auss": 4656,
      "Ġchante": 4657,
      "ĠLyon": 4658,
      "ĠMosc": 4659,
      "chement": 4660,
      "Ġclair": 4661,
      "Ġdyn": 4662,
      "fr": 4663,
      "Ġsites": 4664,
      "seurs": 4665,
      "tta": 4666,
      "accÃ¨s": 4667,
      "ĠLaurent": 4668,
      "Ġconflit": 4669,
      "ĠTrans": 4670,
      "ĠGi": 4671,
      "urance": 4672,
      "ĠStras": 4673,
      "Ġregr": 4674,
      "Ġdemeure": 4675,
      "ĠÅĵuvre": 4676,
      "Ġzones": 4677,
      "Ġquelle": 4678,
      "Ġerre": 4679,
      "Ġpermettant": 4680,
      "ĠJose": 4681,
      "Ag": 4682,
      "Ġmigr": 4683,
      "Ġbilan": 4684,
      "Ġperform": 4685,
      "Ġfonctionn": 4686,
      "Ġportes": 4687,
      "ires": 4688,
      "Ġment": 4689,
      "alisÃ©e": 4690,
      "Ġretard": 4691,
      "alise": 4692,
      "Ġgare": 4693,
      "dans": 4694,
      "Ġprincipe": 4695,
      "Ġsurface": 4696,
      "ĠÃ©pouse": 4697,
      "Ġcommande": 4698,
      "joint": 4699,
      "Ã§a": 4700,
      "Ġparticiper": 4701,
      "Ġurb": 4702,
      "ĠMarse": 4703,
      "ĠrÃ©fug": 4704,
      "ications": 4705,
      "Ġcentaines": 4706,
      "Ġmagas": 4707,
      "ĠdÃ©mont": 4708,
      "ĠBrÃ©sil": 4709,
      "Ġimages": 4710,
      "Ãīc": 4711,
      "ution": 4712,
      "Ġap": 4713,
      "ĠparlÃ©": 4714,
      "Ġeffic": 4715,
      "Ġsupport": 4716,
      "ĠtÃ©lÃ©phone": 4717,
      "ĠWh": 4718,
      "inqui": 4719,
      "EN": 4720,
      "ĠDonc": 4721,
      "aug": 4722,
      "Ġral": 4723,
      "Ġquasi": 4724,
      "):": 4725,
      "erte": 4726,
      "ologne": 4727,
      "Ġvia": 4728,
      "ĠRÃ©g": 4729,
      "hou": 4730,
      "Ġtex": 4731,
      "Ġjustif": 4732,
      "quie": 4733,
      "dier": 4734,
      "Ġeuro": 4735,
      "Ġcontexte": 4736,
      "olue": 4737,
      "ĠJames": 4738,
      "ula": 4739,
      "Ġobjectif": 4740,
      "ĠvÃ©ritÃ©": 4741,
      "ĠÃ©pis": 4742,
      "Ã©lect": 4743,
      "oo": 4744,
      "Ġchoc": 4745,
      "Is": 4746,
      "Ġ1999": 4747,
      "Ġgrat": 4748,
      "Ġprocure": 4749,
      "any": 4750,
      "Ġmusul": 4751,
      "illÃ©": 4752,
      "ĠriviÃ¨re": 4753,
      "cept": 4754,
      "rages": 4755,
      "Ġaccident": 4756,
      "exc": 4757,
      "Ġinten": 4758,
      "enait": 4759,
      "Ġfi": 4760,
      "Ġbate": 4761,
      "Ãªcher": 4762,
      "Ġvent": 4763,
      "Ġrevenu": 4764,
      "Ġdange": 4765,
      "uves": 4766,
      "Ã©quip": 4767,
      "Ġheureux": 4768,
      "ressÃ©": 4769,
      "Ã©roport": 4770,
      "ĠcaractÃ¨re": 4771,
      "ĠBay": 4772,
      "Ġrisques": 4773,
      "ĠMaison": 4774,
      "Ġpropres": 4775,
      "allÃ©e": 4776,
      "Ġaccueilli": 4777,
      "ĠMax": 4778,
      "environ": 4779,
      "ĠOli": 4780,
      "Ġsurveill": 4781,
      "Ġdessin": 4782,
      "hÃ´tel": 4783,
      "anal": 4784,
      "ĠblessÃ©s": 4785,
      "arre": 4786,
      "Ġajout": 4787,
      "ĠreÃ§oit": 4788,
      "ĠCÃ´": 4789,
      "atoires": 4790,
      "Ġchefs": 4791,
      "ĠeuropÃ©ens": 4792,
      "assurer": 4793,
      "CI": 4794,
      "Ġprovin": 4795,
      "Ġdevra": 4796,
      "ĠTim": 4797,
      "ĠSainte": 4798,
      "Ġsignal": 4799,
      "Ġattendre": 4800,
      "Ġcabinet": 4801,
      "ĠrÃ©public": 4802,
      "Ġsond": 4803,
      "Ġcontact": 4804,
      "ores": 4805,
      "ĠchrÃ©": 4806,
      "ĠMag": 4807,
      "formes": 4808,
      "range": 4809,
      "arme": 4810,
      "Ġbonnes": 4811,
      "ĠÃ©tape": 4812,
      "ricitÃ©": 4813,
      "Ġbelge": 4814,
      "Ġru": 4815,
      "ĠDaniel": 4816,
      "inique": 4817,
      "Ã©lic": 4818,
      "ĠmÃ©decin": 4819,
      "Ġtraitement": 4820,
      "Ġpan": 4821,
      "vel": 4822,
      "ĠmÃ©can": 4823,
      "ĠvÃ©ri": 4824,
      "Ġbanques": 4825,
      "quÃ©es": 4826,
      "ĠpropriÃ©taire": 4827,
      "Ġstructure": 4828,
      "mir": 4829,
      "rÃ©g": 4830,
      "reuve": 4831,
      "entraÃ®neur": 4832,
      "ĠSuisse": 4833,
      "Ġdehors": 4834,
      "als": 4835,
      "23": 4836,
      "Ġjudiciaire": 4837,
      "Ġfinancement": 4838,
      "Afrique": 4839,
      "SI": 4840,
      "oto": 4841,
      "mond": 4842,
      "ica": 4843,
      "Ãªque": 4844,
      "Ġminute": 4845,
      "ĠAll": 4846,
      "ĠÃ©conomiques": 4847,
      "matique": 4848,
      "Ġouverte": 4849,
      "Ġfaite": 4850,
      "ĠprotÃ©ger": 4851,
      "CE": 4852,
      "igueur": 4853,
      "Ġenseign": 4854,
      "ĠdÃ©cide": 4855,
      "Ġair": 4856,
      "Fran": 4857,
      "Ġdanger": 4858,
      "ĠJo": 4859,
      "ĠMo": 4860,
      "ĠBri": 4861,
      "Ġlancer": 4862,
      "Ġplaces": 4863,
      "Ġsolid": 4864,
      "ruption": 4865,
      "ĠÃ©levÃ©": 4866,
      "Ġprince": 4867,
      "gÃ©n": 4868,
      "Ġvoulez": 4869,
      "olie": 4870,
      "Ġpuisqu": 4871,
      "Ġvoitures": 4872,
      "Ġpubliques": 4873,
      "Ġidentif": 4874,
      "agence": 4875,
      "ĠClaude": 4876,
      "Ġvoire": 4877,
      "ombre": 4878,
      "ĠfrontiÃ¨re": 4879,
      "Ġphase": 4880,
      "80": 4881,
      "Ġrenouv": 4882,
      "rot": 4883,
      "za": 4884,
      "atur": 4885,
      "album": 4886,
      "ĠfÃ©dÃ©ral": 4887,
      "Ġmenace": 4888,
      "Ġservir": 4889,
      "Ġsing": 4890,
      "ĠblessÃ©": 4891,
      "ĠspÃ©cial": 4892,
      "ĠPen": 4893,
      "entitÃ©": 4894,
      "ĠprivÃ©": 4895,
      "ĠPubli": 4896,
      ".,": 4897,
      "ĠMaur": 4898,
      "avec": 4899,
      "ova": 4900,
      "ĠStrasbourg": 4901,
      "ĠfinanciÃ¨re": 4902,
      "ophie": 4903,
      "Ġenvis": 4904,
      "Ġciel": 4905,
      "quait": 4906,
      "Ġremis": 4907,
      "ave": 4908,
      "trÃ©": 4909,
      "Ġvainque": 4910,
      "lieu": 4911,
      "Ġscru": 4912,
      "Ġfant": 4913,
      "Ġconvainc": 4914,
      "Ã©taires": 4915,
      "ĠNÃ©": 4916,
      "ĠprÃ©voit": 4917,
      "AL": 4918,
      "retagne": 4919,
      "gg": 4920,
      "riture": 4921,
      "Ġministres": 4922,
      "ket": 4923,
      "ĠÃ®": 4924,
      "Ġsuffis": 4925,
      "Ġrejoindre": 4926,
      "exist": 4927,
      "ĠÃ©coles": 4928,
      "amme": 4929,
      "ĠPatrick": 4930,
      "ms": 4931,
      "ĠÃ©mis": 4932,
      "ĠJÃ©r": 4933,
      "ĠactivitÃ©": 4934,
      "asc": 4935,
      "ĠParce": 4936,
      "Ġfallait": 4937,
      "Ġvouloir": 4938,
      "Ġ400": 4939,
      "Ġacteurs": 4940,
      "ondissement": 4941,
      "Ġsin": 4942,
      "Ġdiv": 4943,
      "Ġentour": 4944,
      "chent": 4945,
      "Ġlien": 4946,
      "ĠAngel": 4947,
      "Ġregret": 4948,
      "ĠPeu": 4949,
      "ĠWal": 4950,
      "cad": 4951,
      "ĠHenri": 4952,
      "Ġperman": 4953,
      "ĠPrÃ©s": 4954,
      "Ġvolu": 4955,
      "rocher": 4956,
      "Ġentendre": 4957,
      "Ġmatches": 4958,
      "Ġproxim": 4959,
      "dia": 4960,
      "ĠBal": 4961,
      "Ġenti": 4962,
      "Ġ186": 4963,
      "ĠAli": 4964,
      "ĠmÃ©moire": 4965,
      "agent": 4966,
      "Ġdoub": 4967,
      "ĠvoilÃł": 4968,
      "Ġperte": 4969,
      "Ġpomp": 4970,
      "Ġscore": 4971,
      "ather": 4972,
      "ĠÃ©criv": 4973,
      "Ġpor": 4974,
      "ĠgÃ©nÃ©ralement": 4975,
      "FA": 4976,
      "ago": 4977,
      "Ġpros": 4978,
      "agnes": 4979,
      "go": 4980,
      "Ġconcl": 4981,
      "Ġgaranti": 4982,
      "dÃ©": 4983,
      "ĠtournÃ©e": 4984,
      "Ġprintemps": 4985,
      "Ġ1998": 4986,
      "ĠproximitÃ©": 4987,
      "ĠcÃ©rÃ©m": 4988,
      "ĠreprÃ©sentant": 4989,
      "Ġchron": 4990,
      "Ġatteindre": 4991,
      "Ġmaisons": 4992,
      "Ġcontemp": 4993,
      "ĠMay": 4994,
      "Ġclubs": 4995,
      "enfant": 4996,
      "prÃ©sident": 4997,
      "her": 4998,
      "ttawa": 4999,
      "ĠAg": 5000,
      "Ġcommis": 5001,
      "Ġpouvez": 5002,
      "Ġorient": 5003,
      "aval": 5004,
      "ercice": 5005,
      "Ġrues": 5006,
      "national": 5007,
      "cupe": 5008,
      "Ġeut": 5009,
      "ativement": 5010,
      "ĠcondamnÃ©": 5011,
      "Ġmassi": 5012,
      "Ġinspir": 5013,
      "ĠcomplÃ¨tement": 5014,
      "Ġreprendre": 5015,
      "astique": 5016,
      "aro": 5017,
      "ĠopÃ©rations": 5018,
      "Ġallons": 5019,
      "ĠActu": 5020,
      "Ġhor": 5021,
      "ĠÃ©d": 5022,
      "rÃªts": 5023,
      "Ġphotos": 5024,
      "Ġcess": 5025,
      "olutions": 5026,
      "Ġsentiment": 5027,
      "enus": 5028,
      "Ġconduit": 5029,
      "ĠTwitter": 5030,
      "ĠVers": 5031,
      "agÃ©e": 5032,
      "Ġfonctions": 5033,
      "raÃ«l": 5034,
      "ĠphÃ©nom": 5035,
      "Ġseuls": 5036,
      "Åĵuvre": 5037,
      "Ġfile": 5038,
      "Ġ33": 5039,
      "tiÃ¨me": 5040,
      "pit": 5041,
      "Ġrencontres": 5042,
      "Ġmic": 5043,
      "ĠVinc": 5044,
      "objectif": 5045,
      "Ġjuridi": 5046,
      "Ġnaissance": 5047,
      "Ġcapable": 5048,
      "Ġbaiss": 5049,
      "SA": 5050,
      "ĠarrivÃ©e": 5051,
      "ĠstratÃ©gie": 5052,
      "atÃ©": 5053,
      "ussit": 5054,
      "Ġtermes": 5055,
      "ĠCelui": 5056,
      "Ġspor": 5057,
      "ĠÃ©nor": 5058,
      "tÃ©s": 5059,
      "ĠreprÃ©sentants": 5060,
      "Ġsoleil": 5061,
      "Ġsensi": 5062,
      "uelles": 5063,
      "liÃ©": 5064,
      "ĠNi": 5065,
      "ĠÃ©vent": 5066,
      "Ġballe": 5067,
      "Ã©mission": 5068,
      "Ġcomptes": 5069,
      "don": 5070,
      "Ġ32": 5071,
      "Ġsuspect": 5072,
      "former": 5073,
      "alu": 5074,
      "Ġpartage": 5075,
      "andes": 5076,
      "Ġallemande": 5077,
      "Ġlic": 5078,
      "Ġcommunication": 5079,
      "ĠMex": 5080,
      "Ġenvie": 5081,
      "Ġvisi": 5082,
      "ĠPeut": 5083,
      "gleterre": 5084,
      "ĠenvoyÃ©": 5085,
      "ĠÃ©vÃ©nements": 5086,
      "oquer": 5087,
      "El": 5088,
      "Ã¨tes": 5089,
      "endie": 5090,
      "Ġprises": 5091,
      "Ġclassique": 5092,
      "ĠMonde": 5093,
      "Ġjeunesse": 5094,
      "ĠretrouvÃ©": 5095,
      "Ã©ducation": 5096,
      "Ġcaf": 5097,
      "ĠrÃ©aliser": 5098,
      "olf": 5099,
      "Ġfranch": 5100,
      "ĠdiffÃ©rence": 5101,
      "ĠEs": 5102,
      "ĠSociÃ©tÃ©": 5103,
      "At": 5104,
      "Ġlourd": 5105,
      "Ġcroit": 5106,
      "ibli": 5107,
      "Ġhave": 5108,
      "Ġmille": 5109,
      "90": 5110,
      "ca": 5111,
      "Angleterre": 5112,
      "ĠLÃ©": 5113,
      "Ġsavez": 5114,
      "ellent": 5115,
      "ĠterminÃ©": 5116,
      "ĠextrÃªme": 5117,
      "ols": 5118,
      "arn": 5119,
      "entiellement": 5120,
      "Ġmonsieur": 5121,
      "Ġpassant": 5122,
      "ĠrÃ©ag": 5123,
      "pes": 5124,
      "Ġattaque": 5125,
      "Ġtiers": 5126,
      "Ġprolong": 5127,
      "AM": 5128,
      "ĠindÃ©pend": 5129,
      "absence": 5130,
      "ĠTerre": 5131,
      "Ġjui": 5132,
      "can": 5133,
      "autor": 5134,
      "ĠchangÃ©": 5135,
      "Ġsecondes": 5136,
      "Ġappelle": 5137,
      "Ġ36": 5138,
      "35": 5139,
      "ĠLire": 5140,
      "ake": 5141,
      "Ġmajor": 5142,
      "arrÃªt": 5143,
      "Ġmenac": 5144,
      "Ġsuivante": 5145,
      "Ġhockey": 5146,
      "ĠtÃ©l": 5147,
      "lation": 5148,
      "ĠRos": 5149,
      "Ġdomin": 5150,
      "ĠrÃ©t": 5151,
      "ĠFÃ©dÃ©ration": 5152,
      "Ġproven": 5153,
      "ports": 5154,
      "ĠnumÃ©rique": 5155,
      "Ġtur": 5156,
      "ĠÃ©trangÃ¨res": 5157,
      "%)": 5158,
      "Ġcollection": 5159,
      "ĠdÃ©couverte": 5160,
      "ĠdÃ©couvrir": 5161,
      "ĠRed": 5162,
      "ĠsociÃ©tÃ©s": 5163,
      "Ġcouleurs": 5164,
      "Ġlocal": 5165,
      "ĠPrix": 5166,
      "ĠMarseille": 5167,
      "Ġressources": 5168,
      "Ġefforts": 5169,
      "Ġprofonde": 5170,
      "Ġpois": 5171,
      "videmment": 5172,
      "Ġdivis": 5173,
      "acteur": 5174,
      "Ġnoms": 5175,
      "Ġcos": 5176,
      "Ġcalcul": 5177,
      "fer": 5178,
      "ĠrÃ©vÃ©l": 5179,
      "lÃ©gu": 5180,
      "venue": 5181,
      "ĠexpÃ©rience": 5182,
      "Ġscand": 5183,
      "ĠCent": 5184,
      "Ġcommiss": 5185,
      "Ġobtient": 5186,
      "avance": 5187,
      "ĠdÃ©sir": 5188,
      "alifor": 5189,
      "tenus": 5190,
      "Ġ1980": 5191,
      "Ġcontent": 5192,
      "ondes": 5193,
      "Ġem": 5194,
      "ĠÃ©trangers": 5195,
      "ĠInternet": 5196,
      "Ġconcerne": 5197,
      "Ġpape": 5198,
      "ĠdifficultÃ©s": 5199,
      "resser": 5200,
      "ĠBur": 5201,
      "titue": 5202,
      "ĠrÃªve": 5203,
      "bon": 5204,
      "ĠrÃ©clam": 5205,
      "ĠresponsabilitÃ©": 5206,
      "Ġrecherches": 5207,
      "ĠbrÃ»": 5208,
      "ĠPubliÃ©": 5209,
      "Ġtort": 5210,
      "moine": 5211,
      "Ġcommencer": 5212,
      "Ġenvers": 5213,
      "ĠidÃ©es": 5214,
      "Ġlocale": 5215,
      "Ġenvironnement": 5216,
      "ĠrÃ©guliÃ¨rement": 5217,
      "paravant": 5218,
      "alogue": 5219,
      "Ġattent": 5220,
      "70": 5221,
      "anges": 5222,
      "ieuse": 5223,
      "environnement": 5224,
      "Ġchim": 5225,
      "ĠBrun": 5226,
      "Ġlettres": 5227,
      "itent": 5228,
      "oint": 5229,
      "ĠOs": 5230,
      "ĠnuclÃ©aire": 5231,
      "Ġavions": 5232,
      "ĠparticipÃ©": 5233,
      "arrÃª": 5234,
      "ancienne": 5235,
      "Ġcapital": 5236,
      "Ġcirculation": 5237,
      "Ġpersonnages": 5238,
      "Ġquitte": 5239,
      "liquer": 5240,
      "Ġcommunaut": 5241,
      "rimer": 5242,
      "Ġmagaz": 5243,
      "ĠorganisÃ©": 5244,
      "liers": 5245,
      "ĠBerlin": 5246,
      "Ġdon": 5247,
      "ustralie": 5248,
      "ĠforcÃ©": 5249,
      "ĠRÃ©s": 5250,
      "Ġcivile": 5251,
      "Ġextra": 5252,
      "onstr": 5253,
      "Ġtendance": 5254,
      "Ġdiscip": 5255,
      "ĠÃ©di": 5256,
      "tÃ©ph": 5257,
      "ĠaccusÃ©": 5258,
      "ĠrÃ©fÃ©r": 5259,
      "Ġdisait": 5260,
      "NC": 5261,
      "ĠGeorge": 5262,
      "ĠDim": 5263,
      "Ġdisposi": 5264,
      "Ã©sie": 5265,
      "ĠbÃ©b": 5266,
      "Ġconcours": 5267,
      "Ġsouver": 5268,
      "offre": 5269,
      "Ġcoin": 5270,
      "ĠReg": 5271,
      "tionnel": 5272,
      "Ġbrut": 5273,
      "Ġcritiques": 5274,
      "Ġgrave": 5275,
      "cte": 5276,
      "mation": 5277,
      "Ġmu": 5278,
      "Ġtomber": 5279,
      "OM": 5280,
      "ĠÃ©chapp": 5281,
      "raÃ©li": 5282,
      "Ġsoins": 5283,
      "ĠBos": 5284,
      "uctures": 5285,
      "ĠWall": 5286,
      "ĠVi": 5287,
      "Ġeffets": 5288,
      "Ġproposition": 5289,
      "Ġinstr": 5290,
      "ĠfranÃ§aises": 5291,
      "Ġcolon": 5292,
      "Ġclimat": 5293,
      "Ġitalien": 5294,
      "Ã´mage": 5295,
      "line": 5296,
      "Ġprofessionnels": 5297,
      "ĠChaque": 5298,
      "Ã§ait": 5299,
      "ONU": 5300,
      "ĠmontrÃ©": 5301,
      "Ġgardien": 5302,
      "Ġfabric": 5303,
      "ĠMaintenant": 5304,
      "ya": 5305,
      "Ġsen": 5306,
      "gyp": 5307,
      "ouer": 5308,
      "Ġcouleur": 5309,
      "Ġtotalement": 5310,
      "Ġdo": 5311,
      "do": 5312,
      "olet": 5313,
      "AD": 5314,
      "ĠgrÃ¨ve": 5315,
      "uir": 5316,
      "Ġancienne": 5317,
      "Ġpoursuivre": 5318,
      "instant": 5319,
      "Ġauteurs": 5320,
      "Cl": 5321,
      "AP": 5322,
      "Ġray": 5323,
      "ĠEmmanuel": 5324,
      "Ġfrag": 5325,
      "Ġsocialiste": 5326,
      "ĠAuc": 5327,
      "ĠMoscou": 5328,
      "isp": 5329,
      "Saint": 5330,
      "Ġ150": 5331,
      "alition": 5332,
      "toi": 5333,
      "BC": 5334,
      "ĠsÃ©ance": 5335,
      "Ġavis": 5336,
      "Ġtransform": 5337,
      "Ġtyp": 5338,
      "Ġrecommand": 5339,
      "ĠfrÃ¨res": 5340,
      "importe": 5341,
      "Ġlesquels": 5342,
      "Ġtableau": 5343,
      "vo": 5344,
      "diction": 5345,
      "Ġchauff": 5346,
      "ĠGrÃ¨ce": 5347,
      "ĠAlain": 5348,
      "\"),": 5349,
      "ĠChristian": 5350,
      "ĠdÃ©penses": 5351,
      "Institut": 5352,
      "Ã©tranger": 5353,
      "ĠAndrÃ©": 5354,
      "ling": 5355,
      "Ġrestent": 5356,
      "ĠcomposÃ©": 5357,
      "ĠTer": 5358,
      "riques": 5359,
      "itz": 5360,
      "ulg": 5361,
      "Ġexploit": 5362,
      "Ouest": 5363,
      "Ġout": 5364,
      "Ġdette": 5365,
      "Ġfinancier": 5366,
      "illa": 5367,
      "ĠEh": 5368,
      "ĠcollÃ¨g": 5369,
      "ĠdÃ©voil": 5370,
      "ĠdÃ©velopper": 5371,
      "assade": 5372,
      "oureux": 5373,
      "oilÃł": 5374,
      "Ġpage": 5375,
      "France": 5376,
      "Ġcoupe": 5377,
      "my": 5378,
      "ĠVol": 5379,
      "Ġmauvaise": 5380,
      "deau": 5381,
      "Ġsecret": 5382,
      "uration": 5383,
      "Ġara": 5384,
      "ĠquittÃ©": 5385,
      "itions": 5386,
      "ĠcatÃ©gorie": 5387,
      "avons": 5388,
      "Ġprivil": 5389,
      "azz": 5390,
      "Ġpiste": 5391,
      "ession": 5392,
      "Ġperformance": 5393,
      "ĠaccÃ¨s": 5394,
      "ĠDer": 5395,
      "Ġfaudra": 5396,
      "aste": 5397,
      "Ġpa": 5398,
      "hin": 5399,
      "ory": 5400,
      "Ġcinqui": 5401,
      "Ġencour": 5402,
      "ĠFr": 5403,
      "Ġprati": 5404,
      "itt": 5405,
      "iger": 5406,
      "Ġtirer": 5407,
      "den": 5408,
      "Ġtab": 5409,
      "endi": 5410,
      "lait": 5411,
      "hiver": 5412,
      "ĠcolÃ¨re": 5413,
      "ĠMadrid": 5414,
      "Ġconclu": 5415,
      "ereur": 5416,
      "Ġu": 5417,
      "Ã´ne": 5418,
      "Ġreport": 5419,
      "Ġtrafic": 5420,
      "appelle": 5421,
      "vue": 5422,
      "ĠMur": 5423,
      "Ġtermine": 5424,
      "ĠLeur": 5425,
      "ĠNice": 5426,
      "Ã©mique": 5427,
      "ĠOÃ¹": 5428,
      "Ġrencontrer": 5429,
      "atures": 5430,
      "Åł": 5431,
      "itch": 5432,
      "Ġchansons": 5433,
      "agon": 5434,
      "ĠtempÃ©r": 5435,
      "aurait": 5436,
      "ĠdÃ©cÃ¨s": 5437,
      "ocation": 5438,
      "ju": 5439,
      "Ġax": 5440,
      "section": 5441,
      "26": 5442,
      "inture": 5443,
      "Ġtit": 5444,
      "ĠItalie": 5445,
      "Ġdizaines": 5446,
      "pin": 5447,
      "Ġbloc": 5448,
      "ĠÃ©tablis": 5449,
      "ĠdÃ©fendre": 5450,
      "ĠcompÃ©t": 5451,
      "tionnaire": 5452,
      "cy": 5453,
      "Ã©cutif": 5454,
      "ouill": 5455,
      "Ġglace": 5456,
      "ĠAf": 5457,
      "ĠPers": 5458,
      "Ġtechniques": 5459,
      "Ġpromis": 5460,
      "Aut": 5461,
      "ĠconsidÃ©rÃ©": 5462,
      "formÃ©": 5463,
      "Ġsauver": 5464,
      "vitÃ©": 5465,
      "rets": 5466,
      "ographique": 5467,
      "Ġaime": 5468,
      "Ġprofessionnel": 5469,
      "Ġrepris": 5470,
      "mans": 5471,
      "ĠStÃ©ph": 5472,
      "Ġtenter": 5473,
      "ĠSm": 5474,
      "ĠmÃ©decins": 5475,
      "Ġant": 5476,
      "ĠDou": 5477,
      "Ġlimite": 5478,
      "Ġrecru": 5479,
      "mise": 5480,
      "tiÃ¨res": 5481,
      "Ġmanifestants": 5482,
      "ĠgarÃ§on": 5483,
      "ĠprÃ©sidence": 5484,
      "ĠmunicipalitÃ©": 5485,
      "utilisation": 5486,
      "iÃ©e": 5487,
      "Ġcens": 5488,
      "ival": 5489,
      "Ġmunicipal": 5490,
      "ĠMoh": 5491,
      "Ġconnaissance": 5492,
      "orld": 5493,
      "Ġtente": 5494,
      "ĠRog": 5495,
      "ĠdÃ©plac": 5496,
      "bil": 5497,
      "Ġarticle": 5498,
      "riers": 5499,
      "Ġparole": 5500,
      "ĠrÃ©comp": 5501,
      "fiÃ©": 5502,
      "Ġbu": 5503,
      "UR": 5504,
      "Ġtop": 5505,
      "ĠnÃ©anmoins": 5506,
      "Ġanimaux": 5507,
      "ĠexpÃ©ri": 5508,
      "ĠQuelques": 5509,
      "Ġdistance": 5510,
      "Ã©vÃ©": 5511,
      "ration": 5512,
      "ensive": 5513,
      "ĠPi": 5514,
      "ĠrÃ©col": 5515,
      "outh": 5516,
      "Ġpire": 5517,
      "vÃ©s": 5518,
      "Ġtravailleurs": 5519,
      "ĠBo": 5520,
      "ĠcinquiÃ¨me": 5521,
      "ĠGer": 5522,
      "Ġmeurtre": 5523,
      "Ġrecours": 5524,
      "anes": 5525,
      "aintes": 5526,
      "gin": 5527,
      "75": 5528,
      "Ġtransp": 5529,
      "Ġ34": 5530,
      "Ġconstruire": 5531,
      "Ġofficiellement": 5532,
      "ĠrÃ©duction": 5533,
      "ĠrÃ©flex": 5534,
      "Ġare": 5535,
      "ĠConc": 5536,
      "Ġnaturelle": 5537,
      "OR": 5538,
      "Ġremettre": 5539,
      "ĠÃ©cole": 5540,
      "Ġdouce": 5541,
      "Ġimpossible": 5542,
      "Ġparois": 5543,
      "iale": 5544,
      "ĠÃ©nerg": 5545,
      "ĠJoseph": 5546,
      "ĠprÃ©sidente": 5547,
      "aider": 5548,
      "Ġenne": 5549,
      "onto": 5550,
      "Ġdisting": 5551,
      "ĠchÃ´mage": 5552,
      "Ġcomte": 5553,
      "ĠGuy": 5554,
      "Ġchampions": 5555,
      "ish": 5556,
      "ĠBor": 5557,
      "tionnelle": 5558,
      "Ġmusici": 5559,
      "day": 5560,
      "Ġvenue": 5561,
      "ĠBru": 5562,
      "ĠEc": 5563,
      "ĠespÃ¨ces": 5564,
      "Ġdanse": 5565,
      ");": 5566,
      "alestin": 5567,
      "Ã´ts": 5568,
      "Ġvenait": 5569,
      "ĠcÃ©lÃ©b": 5570,
      "ree": 5571,
      "ĠMet": 5572,
      "ny": 5573,
      "tiennent": 5574,
      "ĠprÃ©cÃ©dent": 5575,
      "ĠWest": 5576,
      "OS": 5577,
      "Ġmoindre": 5578,
      "ĠtraitÃ©": 5579,
      "ĠIII": 5580,
      "van": 5581,
      "enci": 5582,
      "Ġrecevoir": 5583,
      "Ġpost": 5584,
      "ĠÃ¢ge": 5585,
      "ĠimmÃ©diatement": 5586,
      "ĠeuropÃ©ennes": 5587,
      "ĠidÃ©": 5588,
      "Ġentrer": 5589,
      "zz": 5590,
      "ĠVoi": 5591,
      "Ġdisent": 5592,
      "ĠBourse": 5593,
      "ound": 5594,
      "cles": 5595,
      "Ġvaut": 5596,
      "ĠFab": 5597,
      "ĠcrÃ©Ã©e": 5598,
      "iversaire": 5599,
      "ttes": 5600,
      "oÃ¯": 5601,
      "Ġ1970": 5602,
      "Ġrense": 5603,
      "Ġsecours": 5604,
      "dium": 5605,
      "ĠBanque": 5606,
      "urÃ©e": 5607,
      "ĠmaÃ®tr": 5608,
      "onnÃ©e": 5609,
      "Ġconstitue": 5610,
      "ĠÃ©lectr": 5611,
      "ĠHong": 5612,
      "ĠTou": 5613,
      "Ġ75": 5614,
      "Ġpalais": 5615,
      "ull": 5616,
      "ĠgoÃ»t": 5617,
      "ulp": 5618,
      "28": 5619,
      "telle": 5620,
      "ĠTom": 5621,
      "ĠAux": 5622,
      "Ġtombe": 5623,
      "Ġmy": 5624,
      "chec": 5625,
      "Ġconnue": 5626,
      "Ġregarde": 5627,
      "Ġabord": 5628,
      "ouveau": 5629,
      "Ġdevenue": 5630,
      "Ġespagnol": 5631,
      "Ġriche": 5632,
      "Ġallez": 5633,
      "Ġhommage": 5634,
      "expÃ©rience": 5635,
      "Ġaffront": 5636,
      "Ġdiver": 5637,
      "Ġpourront": 5638,
      "Ġregarder": 5639,
      "Ġmourir": 5640,
      "Ġrecue": 5641,
      "ban": 5642,
      "ĠFrancis": 5643,
      "Ġconsul": 5644,
      "espÃ¨re": 5645,
      "cite": 5646,
      "Ġ180": 5647,
      "appr": 5648,
      "Ġcre": 5649,
      "enture": 5650,
      "ĠClub": 5651,
      "Ġcanadien": 5652,
      "uk": 5653,
      "Ġsection": 5654,
      "Ġloge": 5655,
      "ĠprÃ©d": 5656,
      "Ġcondition": 5657,
      "Ġcanton": 5658,
      "Ġign": 5659,
      "utÃ©e": 5660,
      "raphe": 5661,
      "Ġdiss": 5662,
      "ries": 5663,
      "Ġpartenaires": 5664,
      "Ġcanadienne": 5665,
      "onyme": 5666,
      "ita": 5667,
      "aÃ©roport": 5668,
      ".-": 5669,
      "Ġintit": 5670,
      "Ġviens": 5671,
      "ĠprÃ©sents": 5672,
      "Ġrythme": 5673,
      "ĠrÃ©pondu": 5674,
      "Ġsignifie": 5675,
      "Ġportant": 5676,
      "Ġauront": 5677,
      "Ġdessus": 5678,
      "lÃ©ch": 5679,
      "Ġofficielle": 5680,
      "ĠsÃ©ries": 5681,
      "Ġcivil": 5682,
      "ĠFestival": 5683,
      "espoir": 5684,
      "ĠThÃ©": 5685,
      "avaient": 5686,
      "Ġchale": 5687,
      "ĠToronto": 5688,
      "Ġsatisf": 5689,
      "Ġaffich": 5690,
      "ĠDÃ©s": 5691,
      "Ġscrutin": 5692,
      "Ġgagne": 5693,
      "ĠVincent": 5694,
      "Emp": 5695,
      "Ġpose": 5696,
      "ypoth": 5697,
      "ĠconsÃ©quences": 5698,
      "ĠVotre": 5699,
      "27": 5700,
      "ĠGuill": 5701,
      "Ġbattu": 5702,
      "Ġuniquement": 5703,
      "Ġtenue": 5704,
      "Ġtouche": 5705,
      "Ph": 5706,
      "Ġbesoins": 5707,
      "Ã©rable": 5708,
      "toine": 5709,
      "hÃ©s": 5710,
      "Ġimportants": 5711,
      "Ġfaux": 5712,
      "Ġannonc": 5713,
      "ionnats": 5714,
      "Ġenregist": 5715,
      "Ġactuel": 5716,
      "Ġvisant": 5717,
      "ogne": 5718,
      "Ġrenv": 5719,
      "augment": 5720,
      "Ġvainqueur": 5721,
      "auf": 5722,
      "ĠboÃ®": 5723,
      "ĠLab": 5724,
      "ĠtouchÃ©": 5725,
      "exploitation": 5726,
      "ros": 5727,
      "Ġ185": 5728,
      "Ġdistrict": 5729,
      "ĠNap": 5730,
      "tein": 5731,
      "Ã©ricains": 5732,
      "Ãīglise": 5733,
      "Ġattribu": 5734,
      "Ġviolences": 5735,
      "ĠtentÃ©": 5736,
      "ĠplanÃ¨te": 5737,
      "Ġscientifique": 5738,
      "Ġdiscu": 5739,
      "ĠMark": 5740,
      "ĠRay": 5741,
      "Ġconfront": 5742,
      "Ġsert": 5743,
      "Ġconcent": 5744,
      "Ġ179": 5745,
      "veille": 5746,
      "Ġtrente": 5747,
      "Ġbarre": 5748,
      "ĠtravaillÃ©": 5749,
      "Ġsit": 5750,
      "Ġpress": 5751,
      "Ġcach": 5752,
      "Ġoccident": 5753,
      "Ġmoteur": 5754,
      "Ġsyndicats": 5755,
      "aimer": 5756,
      "rin": 5757,
      "Ġobjec": 5758,
      "Ġmorce": 5759,
      "ĠJusqu": 5760,
      "Ġ38": 5761,
      "ĠÅĵuvres": 5762,
      "ĠrefusÃ©": 5763,
      "Ġcentral": 5764,
      "iblioth": 5765,
      "olo": 5766,
      "Ġfermet": 5767,
      "Ġfoule": 5768,
      "Ġmanifestations": 5769,
      "Ġench": 5770,
      "ĠcÃ©rÃ©monie": 5771,
      "ĠCrÃ©": 5772,
      "Ġcellu": 5773,
      "Ġmens": 5774,
      "accomp": 5775,
      "Ġsoutenir": 5776,
      "ihad": 5777,
      "ĠplacÃ©": 5778,
      "Ġdispose": 5779,
      "Ġjet": 5780,
      "Ġcarb": 5781,
      "ĠdÃ©fic": 5782,
      "ĠChambre": 5783,
      "elli": 5784,
      "zon": 5785,
      "ĠStre": 5786,
      "yan": 5787,
      "ĠsupÃ©rieure": 5788,
      "Ġduc": 5789,
      "imag": 5790,
      "ĠBill": 5791,
      "Ġfen": 5792,
      "Ġreprend": 5793,
      "neau": 5794,
      "ĠDurant": 5795,
      "geois": 5796,
      "ĠCity": 5797,
      "ĠSar": 5798,
      "ĠdÃ©crit": 5799,
      "ĠVictor": 5800,
      "ĠprocÃ©dure": 5801,
      "ĠrencontrÃ©": 5802,
      "Marie": 5803,
      "Ġconcurrence": 5804,
      "Ġrassemb": 5805,
      "dique": 5806,
      "Ġacquis": 5807,
      "Ġceinture": 5808,
      "ĠTre": 5809,
      "Ġvisiteurs": 5810,
      "ĠproposÃ©": 5811,
      "Ġdiscussions": 5812,
      "ford": 5813,
      "Ġput": 5814,
      "agÃ©s": 5815,
      "ĠVe": 5816,
      "ĠnÃ©cessaires": 5817,
      "Ġdocuments": 5818,
      "Ġformer": 5819,
      "ĠdÃ©fi": 5820,
      "ĠgÃ©nÃ©ration": 5821,
      "Ġexac": 5822,
      "Ġhis": 5823,
      "ube": 5824,
      "ĠVoilÃł": 5825,
      "Ġactuelle": 5826,
      "Ġbattre": 5827,
      "Ġits": 5828,
      "mÃªmes": 5829,
      "inion": 5830,
      "ĠpÃªche": 5831,
      "Ġsimil": 5832,
      "Eur": 5833,
      "ĠAnne": 5834,
      "ĠdÃ©fend": 5835,
      "ĠprÃ©vue": 5836,
      "ĠJourn": 5837,
      "Ġjardin": 5838,
      "66": 5839,
      "ison": 5840,
      "29": 5841,
      "Ġappro": 5842,
      "ÄĤÅł": 5843,
      "Ġpermettent": 5844,
      "Ġplainte": 5845,
      "Ġagents": 5846,
      "Ġboul": 5847,
      "uites": 5848,
      "ĠSil": 5849,
      "opÃ©ra": 5850,
      "Ġpoll": 5851,
      "ĠAndre": 5852,
      "meub": 5853,
      "Ġfortement": 5854,
      "ush": 5855,
      "ĠBert": 5856,
      "\"...": 5857,
      "hor": 5858,
      "Ġcontempor": 5859,
      "amÃ©li": 5860,
      "Ġdispos": 5861,
      "cht": 5862,
      "Ġvictoires": 5863,
      "Ġvenus": 5864,
      "Ġoccasion": 5865,
      "Ġcircuit": 5866,
      "Ġmanifestation": 5867,
      "Ġtue": 5868,
      "Ġavance": 5869,
      "adio": 5870,
      "annÃ©es": 5871,
      "Ġvision": 5872,
      "ĠAffaires": 5873,
      ".)": 5874,
      "ĠprÃªts": 5875,
      "Ġprotest": 5876,
      "Bas": 5877,
      "Ġconnais": 5878,
      "Ġ37": 5879,
      "Ġchangements": 5880,
      "Ġpeau": 5881,
      "ĠpÃ©trole": 5882,
      "Ġpostes": 5883,
      "Ġlocales": 5884,
      "pour": 5885,
      "Ã©rite": 5886,
      "ĠFe": 5887,
      "Ġcombien": 5888,
      "ĠXX": 5889,
      "Ġconsult": 5890,
      "jus": 5891,
      "ĠrÃ©serve": 5892,
      "quin": 5893,
      "Ã¨lement": 5894,
      "seur": 5895,
      "lige": 5896,
      "Ġsciences": 5897,
      "archite": 5898,
      "mon": 5899,
      "ĠarriÃ¨re": 5900,
      "Ġpointe": 5901,
      "ĠÃ©tabli": 5902,
      "ĠmÃ©daille": 5903,
      "Ġramen": 5904,
      "oble": 5905,
      "Ex": 5906,
      "33": 5907,
      "ĠdÃ©pend": 5908,
      "Ġ48": 5909,
      "Ġprisonn": 5910,
      "terr": 5911,
      "ĠWil": 5912,
      "ĠAfrique": 5913,
      "ĠTurquie": 5914,
      "ĠpÃ©r": 5915,
      "Ġstock": 5916,
      "sace": 5917,
      "Ġparquet": 5918,
      "uck": 5919,
      "inq": 5920,
      "Ġmanger": 5921,
      "Au": 5922,
      "Ġassociations": 5923,
      "ustral": 5924,
      "ĠapparaÃ®t": 5925,
      "Ġfoi": 5926,
      "Ġcalme": 5927,
      "Ġperspec": 5928,
      "Ġpublication": 5929,
      "ĠPet": 5930,
      "Ġlux": 5931,
      "Ġconfirme": 5932,
      "rient": 5933,
      "importance": 5934,
      "Ġconduite": 5935,
      "ĠpÃ¢": 5936,
      "Ġ1995": 5937,
      "novation": 5938,
      "ennis": 5939,
      "tÃ©rieure": 5940,
      "Ġjaponais": 5941,
      "MI": 5942,
      "Ġdiverses": 5943,
      "ĠprivÃ©e": 5944,
      "Ġchercheurs": 5945,
      "xt": 5946,
      "atin": 5947,
      "Ġdevons": 5948,
      "Ġentier": 5949,
      "ĠFrÃ©d": 5950,
      "Ġcirconst": 5951,
      "oulÃ©e": 5952,
      "trÃªme": 5953,
      "Ġsujets": 5954,
      "Ġ1997": 5955,
      "ĠMath": 5956,
      "Ġinternet": 5957,
      "gue": 5958,
      "ĠforÃªt": 5959,
      "ĠTV": 5960,
      "Ġdoig": 5961,
      "view": 5962,
      "ĠPeter": 5963,
      "Ġintrod": 5964,
      "Ġ*": 5965,
      "ĠÃ©volu": 5966,
      "Ġrecul": 5967,
      "ĠLos": 5968,
      "Ġconscience": 5969,
      "ĠdÃ©finiti": 5970,
      "Ġpatrimoine": 5971,
      "allÃ©": 5972,
      "ĠcÃ´te": 5973,
      "kel": 5974,
      "extÃ©rieur": 5975,
      "EL": 5976,
      "ĠdÃ©clen": 5977,
      "ĠdifficultÃ©": 5978,
      "citÃ©": 5979,
      "ĠLor": 5980,
      "Ã©tudes": 5981,
      "ĠCarl": 5982,
      "ĠengagÃ©": 5983,
      "Ġtrouvent": 5984,
      "Ġvise": 5985,
      "Ġtrouvait": 5986,
      "AmÃ©rique": 5987,
      "ĠUni": 5988,
      "cool": 5989,
      "Ã©cl": 5990,
      "Ġpatients": 5991,
      "ĠentrÃ©e": 5992,
      "cia": 5993,
      "Ġdizaine": 5994,
      "Ġconseill": 5995,
      "Ce": 5996,
      "Ġplans": 5997,
      "Ġprocureur": 5998,
      "ĠallÃ©": 5999,
      "Ġordre": 6000,
      "Ġpierre": 6001,
      "Ġcompt": 6002,
      "oyen": 6003,
      "Ġsaisons": 6004,
      "ses": 6005,
      "Ġmalheure": 6006,
      "ritan": 6007,
      "Ġcycl": 6008,
      "Ġals": 6009,
      "48": 6010,
      "impression": 6011,
      "ailli": 6012,
      "Ġgend": 6013,
      "romp": 6014,
      "way": 6015,
      "ĠcomtÃ©": 6016,
      "Ġdistribution": 6017,
      "Ġterres": 6018,
      "Ġmit": 6019,
      "Ġpilote": 6020,
      "chen": 6021,
      "ĠspÃ©cialiste": 6022,
      "iment": 6023,
      "Ġdynam": 6024,
      "Ġmagazine": 6025,
      "ĠÃīc": 6026,
      "Ġvacances": 6027,
      "vait": 6028,
      "Ġmairie": 6029,
      "Ġemplois": 6030,
      "Ġstatis": 6031,
      "ĠMul": 6032,
      "Ġcatholique": 6033,
      "ĠPÃ©": 6034,
      "utation": 6035,
      "Ġeaux": 6036,
      "ĠmenÃ©": 6037,
      "IRE": 6038,
      "ĠMoi": 6039,
      "Ġsauf": 6040,
      "Ġaver": 6041,
      "ĠisraÃ©li": 6042,
      "ĠrelÃ¨ve": 6043,
      "hÃ©r": 6044,
      "uf": 6045,
      "umÃ©": 6046,
      "ĠjugÃ©": 6047,
      "Association": 6048,
      "Ġsaint": 6049,
      "ĠÃ©vo": 6050,
      "ouche": 6051,
      "Ġamen": 6052,
      "osph": 6053,
      "aissent": 6054,
      "ĠdÃ©tails": 6055,
      "adis": 6056,
      "ologies": 6057,
      "ĠColomb": 6058,
      "Ġsurveillance": 6059,
      "ĠprÃ©parer": 6060,
      "ĠsÃ©v": 6061,
      "Ġassurer": 6062,
      "Ġsilence": 6063,
      "Ġrefuse": 6064,
      "Ġadul": 6065,
      "Ġfinir": 6066,
      "article": 6067,
      "ĠsÃ©rieux": 6068,
      "ivre": 6069,
      "Ġbonheur": 6070,
      "riez": 6071,
      "37": 6072,
      "enseignement": 6073,
      "ĠvÃ©cu": 6074,
      "ĠSav": 6075,
      "Ġvivant": 6076,
      "Ġmontagne": 6077,
      "ĠfrÃ©quent": 6078,
      "ĠrÃ©alisateur": 6079,
      "Ġmener": 6080,
      "Ġreine": 6081,
      "Ġmad": 6082,
      "ection": 6083,
      "cteur": 6084,
      "ĠToutefois": 6085,
      "umer": 6086,
      "atie": 6087,
      "Ġprofond": 6088,
      "ĠinfÃ©ri": 6089,
      "Ġtelles": 6090,
      "Ġsuit": 6091,
      "ĠLac": 6092,
      "ool": 6093,
      "ĠSous": 6094,
      "ĠCorÃ©e": 6095,
      "ja": 6096,
      "Ġamp": 6097,
      "osÃ©e": 6098,
      "Ġcoord": 6099,
      "ĠGeorges": 6100,
      "Ġavocat": 6101,
      "ĠÃ¢gÃ©": 6102,
      "ritanniques": 6103,
      "initi": 6104,
      "Ġmarchand": 6105,
      "ĠpÃ©d": 6106,
      "ventions": 6107,
      "ordeaux": 6108,
      "ĠentiÃ¨rement": 6109,
      "ĠdÃ©claration": 6110,
      "ĠdÃ©fenseur": 6111,
      "Ġcrime": 6112,
      "cuper": 6113,
      "cession": 6114,
      "ĠGir": 6115,
      "fense": 6116,
      "ĠsupplÃ©mentaires": 6117,
      "Ġacqu": 6118,
      "Ġauparavant": 6119,
      "yg": 6120,
      "dite": 6121,
      "Ġprogrammes": 6122,
      "aris": 6123,
      "ĠintÃ©g": 6124,
      "ĠportÃ©e": 6125,
      "Ġconver": 6126,
      "Ġquanti": 6127,
      "Ġnette": 6128,
      "Ġwill": 6129,
      "iant": 6130,
      "ĠDire": 6131,
      "ĠSÃ©nat": 6132,
      "ĠsÃ©d": 6133,
      "FranÃ§ois": 6134,
      "ĠBle": 6135,
      "Ġmonter": 6136,
      "ĠrappelÃ©": 6137,
      "ĠPourtant": 6138,
      "ĠJon": 6139,
      "ĠMun": 6140,
      "Ġdoule": 6141,
      "Ġdouze": 6142,
      "Ġhumaine": 6143,
      "ft": 6144,
      "ĠrÃ¨gle": 6145,
      "Ġpes": 6146,
      "Ġlesquelles": 6147,
      "Ġsociales": 6148,
      "oile": 6149,
      "ĠHer": 6150,
      "Ġesc": 6151,
      "Ġscolaire": 6152,
      "Ġ(+": 6153,
      "Ġpapier": 6154,
      "aco": 6155,
      "ĠcomÃ©": 6156,
      "ĠCat": 6157,
      "Ġreligieux": 6158,
      "_.": 6159,
      "ressionn": 6160,
      "ĠmÃª": 6161,
      "ĠLÃł": 6162,
      "Ġolympiques": 6163,
      "Ġchanteur": 6164,
      "ĠcafÃ©": 6165,
      "tronom": 6166,
      "Ġfinanciers": 6167,
      "Ġappare": 6168,
      "Ġdisparu": 6169,
      "Ġvaste": 6170,
      "contre": 6171,
      "itations": 6172,
      "ĠSimon": 6173,
      "gÃ©es": 6174,
      "Ġcontra": 6175,
      "Ġblanche": 6176,
      "ressions": 6177,
      "diens": 6178,
      "Ġinvestisseurs": 6179,
      "Ġabsolu": 6180,
      "no": 6181,
      "Ġdrog": 6182,
      "Ġportrait": 6183,
      "ĠgÃ©ant": 6184,
      "Ġenj": 6185,
      "Ġsubi": 6186,
      "ize": 6187,
      "ĠmÃ©r": 6188,
      "ogle": 6189,
      "Ġcomplexe": 6190,
      "ows": 6191,
      "ĠHaut": 6192,
      "Ġrepos": 6193,
      "ĠrÃ©sidence": 6194,
      "Ab": 6195,
      "Ġscientifiques": 6196,
      "Jean": 6197,
      "ovic": 6198,
      "atherine": 6199,
      "semble": 6200,
      "ĠÃ©videmment": 6201,
      "ĠNations": 6202,
      "erse": 6203,
      "IB": 6204,
      "Ġnext": 6205,
      "Ġobjets": 6206,
      "Ġtap": 6207,
      "artiste": 6208,
      "Ġmilitants": 6209,
      "ĠdÃ©cor": 6210,
      "hier": 6211,
      "ĠdÃ©clare": 6212,
      "Ġtradition": 6213,
      "Ġcollaboration": 6214,
      "Louis": 6215,
      "ĠAlbert": 6216,
      "Ġmoderne": 6217,
      "ĠpropriÃ©tÃ©": 6218,
      "tan": 6219,
      "ctes": 6220,
      "orb": 6221,
      "Ã©tant": 6222,
      "aptis": 6223,
      "quette": 6224,
      "ĠbÃ©bÃ©": 6225,
      "ĠFrank": 6226,
      "Ġ1996": 6227,
      "ugby": 6228,
      "Ġnoire": 6229,
      "Ġdirectrice": 6230,
      "Ġtalent": 6231,
      "asp": 6232,
      "Ġ55": 6233,
      "ĠbÃ¢timents": 6234,
      "ĠhÃ©ros": 6235,
      "indÃ©p": 6236,
      "vice": 6237,
      "chon": 6238,
      "Ġbiens": 6239,
      "olle": 6240,
      "rov": 6241,
      "Ġclairement": 6242,
      "ĠGuillaume": 6243,
      "to": 6244,
      "ĠintÃ©rÃªt": 6245,
      "Ġram": 6246,
      "Ġ1960": 6247,
      "Ġvigueur": 6248,
      "ĠpubliÃ©e": 6249,
      "TA": 6250,
      "kraine": 6251,
      "tÃ©e": 6252,
      "arts": 6253,
      "rible": 6254,
      "avier": 6255,
      "Ġnaturel": 6256,
      "gypte": 6257,
      "ĠMatt": 6258,
      "ĠDub": 6259,
      "Ġpoursuivi": 6260,
      "ĠPologne": 6261,
      "ĠthÃ¨me": 6262,
      "inv": 6263,
      "ander": 6264,
      "Ġconclus": 6265,
      "Ġattendant": 6266,
      "Ġstand": 6267,
      "ĠintÃ©rÃªts": 6268,
      "ĠBu": 6269,
      "Ġcommercial": 6270,
      "ĠMonsieur": 6271,
      "Ġcode": 6272,
      "ĠCarol": 6273,
      "ĠentraÃ®neur": 6274,
      "Ġmaintenir": 6275,
      "automne": 6276,
      "Ġfroid": 6277,
      "Ġverre": 6278,
      "Ġremer": 6279,
      "ĠdÃ©di": 6280,
      "Ġneige": 6281,
      "Ġsubs": 6282,
      "crip": 6283,
      "ĠMondi": 6284,
      "Ġintellig": 6285,
      "Ġoffert": 6286,
      "Ġpages": 6287,
      "ĠLorsque": 6288,
      "Ġtromp": 6289,
      "existence": 6290,
      "Ġhad": 6291,
      "Ġattaques": 6292,
      "Ġconne": 6293,
      "sen": 6294,
      "ĠrÃ©fugiÃ©s": 6295,
      "entraÃ®nement": 6296,
      "ĠcoÃ»ts": 6297,
      "Ġath": 6298,
      "ĠGra": 6299,
      "Ã©cri": 6300,
      "ĠMarine": 6301,
      "Ġemprun": 6302,
      "Ġsl": 6303,
      "Ġchoisir": 6304,
      "ĠamÃ©ricaines": 6305,
      "Ġprochaines": 6306,
      "ories": 6307,
      "36": 6308,
      "mat": 6309,
      "eries": 6310,
      "Ġpompiers": 6311,
      "Ġtarif": 6312,
      "ĠscÃ©nario": 6313,
      "Ġdispositif": 6314,
      "ĠillÃ©g": 6315,
      "itime": 6316,
      "ĠrÃ©gional": 6317,
      "Ġproduire": 6318,
      "Ġdat": 6319,
      "Ġaltern": 6320,
      "Ġcoalition": 6321,
      "Ġexclus": 6322,
      "ieur": 6323,
      "ĠparaÃ®t": 6324,
      "ĠGh": 6325,
      "Ġmentionn": 6326,
      "ĠprÃ©cis": 6327,
      "ĠphÃ©nomÃ¨ne": 6328,
      "Ġfaibles": 6329,
      "illages": 6330,
      "Ġ1994": 6331,
      "Ġpercent": 6332,
      "Ġauquel": 6333,
      "Ġmises": 6334,
      "ĠCalifor": 6335,
      "ĠfrÃ©qu": 6336,
      "Ġutiliser": 6337,
      "Ġprofiter": 6338,
      "ĠmÃ©tier": 6339,
      "Ġprennent": 6340,
      "itre": 6341,
      "Ġbra": 6342,
      "Ġrevue": 6343,
      "ĠdÃ®": 6344,
      "ilibre": 6345,
      "Ġdure": 6346,
      "ĠEric": 6347,
      "ĠrÃ©volution": 6348,
      "Ġformes": 6349,
      "ulÃ©e": 6350,
      "dou": 6351,
      "ĠVoici": 6352,
      "rection": 6353,
      "ĠFrÃ©dÃ©ric": 6354,
      "\").": 6355,
      "Ġcommer": 6356,
      "feu": 6357,
      "ĠChic": 6358,
      "ao": 6359,
      "Ġsurn": 6360,
      "Ã©lo": 6361,
      "ĠÃ©tablissements": 6362,
      "entine": 6363,
      "Ġinconn": 6364,
      "EI": 6365,
      "Ġprogressi": 6366,
      "ĠsÅĵur": 6367,
      "ene": 6368,
      "ĠColl": 6369,
      "ĠdÃ©rou": 6370,
      "Ġofficiel": 6371,
      "Ġprud": 6372,
      "ĠAutre": 6373,
      "ĠdÃ©cisions": 6374,
      "Ã©ricain": 6375,
      "Ġremb": 6376,
      "EC": 6377,
      "Ġro": 6378,
      "hÃ©m": 6379,
      "sons": 6380,
      "ĠVI": 6381,
      "38": 6382,
      "Ġblessure": 6383,
      "ĠCanadien": 6384,
      "ĠDam": 6385,
      "Ġenle": 6386,
      "Ġolympique": 6387,
      "\":": 6388,
      "Ġbeaux": 6389,
      "ga": 6390,
      "Ġsyndicat": 6391,
      "Ġscience": 6392,
      "ĠdÃ©mission": 6393,
      "ĠlittÃ©rature": 6394,
      "ĠAngeles": 6395,
      "34": 6396,
      "extrÃªme": 6397,
      "Ġcancer": 6398,
      "Ġhon": 6399,
      "Ġtotale": 6400,
      "istique": 6401,
      "Ġacte": 6402,
      "ĠbÃ©n": 6403,
      "Ġafric": 6404,
      "entin": 6405,
      "tera": 6406,
      "ĠXIX": 6407,
      "Ġessentiellement": 6408,
      "Ġrenouvel": 6409,
      "ouff": 6410,
      "Ġdie": 6411,
      "Ã©tablissement": 6412,
      "assurance": 6413,
      "investissement": 6414,
      "ĠOlivier": 6415,
      "ĠVall": 6416,
      "Ġcriti": 6417,
      "ĠJan": 6418,
      "cieux": 6419,
      "ĠPou": 6420,
      "ĠGoogle": 6421,
      "Ġmasse": 6422,
      "Ġrentrer": 6423,
      "ota": 6424,
      "Ġpel": 6425,
      "Ġcollectif": 6426,
      "Ġfrancoph": 6427,
      "ala": 6428,
      "ĠcrÃ©dit": 6429,
      "Ġobjectifs": 6430,
      "ĠRien": 6431,
      "ĠRec": 6432,
      "bl": 6433,
      "avion": 6434,
      "Ġcatast": 6435,
      "Ġprofessionnelle": 6436,
      "ĠnÃ©cessitÃ©": 6437,
      "ĠdÃ©te": 6438,
      "avocat": 6439,
      "Ġexig": 6440,
      "Ġassi": 6441,
      "Ġrock": 6442,
      "Ġ39": 6443,
      "Ġbateau": 6444,
      "ĠRod": 6445,
      "arriÃ¨re": 6446,
      "Ġoeuvre": 6447,
      "dom": 6448,
      "mun": 6449,
      "ĠBordeaux": 6450,
      "PS": 6451,
      "ĠMat": 6452,
      "Ġlead": 6453,
      "intÃ©gr": 6454,
      "ĠlibÃ©ral": 6455,
      "ĠacceptÃ©": 6456,
      "bus": 6457,
      "ilÃ©": 6458,
      "Ġremise": 6459,
      "Ġreli": 6460,
      "ĠmÃ©trop": 6461,
      "Ġvraie": 6462,
      "ĠTri": 6463,
      "ancÃ©e": 6464,
      "ĠtÃ©lÃ©vis": 6465,
      "Ġdocteur": 6466,
      "ĠPrÃ©": 6467,
      "ĠTra": 6468,
      "Ġcheveux": 6469,
      "ĠPortug": 6470,
      "ĠrÃ©glement": 6471,
      "emple": 6472,
      "Ġtirs": 6473,
      "ĠEspagne": 6474,
      "ĠlÃ©gislatives": 6475,
      "ĠSant": 6476,
      "Ġattention": 6477,
      "gÃ©rie": 6478,
      "oke": 6479,
      "ĠConf": 6480,
      "Ġchauss": 6481,
      "Se": 6482,
      "Ġlancement": 6483,
      "Ġartic": 6484,
      "ĠSyl": 6485,
      "Ġcombatt": 6486,
      "ĠRadio": 6487,
      "ĠBob": 6488,
      "Ġstar": 6489,
      "Ġpratiques": 6490,
      "ĠdÃ©faut": 6491,
      "Ġvingtaine": 6492,
      "Ġfame": 6493,
      "vard": 6494,
      "Ġrares": 6495,
      "Ġ65": 6496,
      "Ġmarge": 6497,
      "ĠBlack": 6498,
      "ĠgÃ©nÃ©r": 6499,
      "Ġarme": 6500,
      "Ġtranqu": 6501,
      "ĠmenÃ©e": 6502,
      "Ġcuisine": 6503,
      "Ġorganisation": 6504,
      "Ġgrosse": 6505,
      "ĠprÃ©paration": 6506,
      "aus": 6507,
      "oct": 6508,
      "ĠBarc": 6509,
      "Ġprovis": 6510,
      "lections": 6511,
      "Ġfromsection": 6512,
      "estes": 6513,
      "ĠMel": 6514,
      "Ġcoul": 6515,
      "ĠÃ©lectrique": 6516,
      "ribuer": 6517,
      "ghan": 6518,
      "rastr": 6519,
      "ĠvÃªte": 6520,
      "Ġcontinent": 6521,
      "...)": 6522,
      "ĠPap": 6523,
      "accueil": 6524,
      "Ġfier": 6525,
      "ĠLou": 6526,
      "ĠCD": 6527,
      "Ġdisposition": 6528,
      "Ġvieille": 6529,
      "osection": 6530,
      "ason": 6531,
      "Ġtosection": 6532,
      "Ġcentres": 6533,
      "Ġmaximum": 6534,
      "ĠtirÃ©": 6535,
      "ico": 6536,
      "riculture": 6537,
      "Ġimportantes": 6538,
      "ĠToulouse": 6539,
      "Ġye": 6540,
      "Ġafter": 6541,
      "king": 6542,
      "Ġhuman": 6543,
      "zaine": 6544,
      "ĠrÃ©alise": 6545,
      "Ġprimaire": 6546,
      "ĠhÃ´tel": 6547,
      "Ġmigrants": 6548,
      "Ġanniversaire": 6549,
      "ĠPremiÃ¨re": 6550,
      "Ġmoments": 6551,
      "entrepr": 6552,
      "ĠJam": 6553,
      "Si": 6554,
      "ĠAlexandre": 6555,
      "Ġpromet": 6556,
      "Ġpartisans": 6557,
      "Ġmascul": 6558,
      "ĠlycÃ©e": 6559,
      "ĠespÃ¨re": 6560,
      "ĠDj": 6561,
      "row": 6562,
      "Ġreconnaissance": 6563,
      "Ġdollar": 6564,
      "Ġjoie": 6565,
      "Ġamour": 6566,
      "Ġsupr": 6567,
      "ĠprÃ©occup": 6568,
      "Ġgouverneur": 6569,
      "Ġprincipales": 6570,
      "Ã©rir": 6571,
      "47": 6572,
      "Ġsugg": 6573,
      "Ġlabor": 6574,
      "Ġnavire": 6575,
      "ĠCelle": 6576,
      "lymp": 6577,
      "Ġvide": 6578,
      "ciens": 6579,
      "Ġrestaurant": 6580,
      "ĠLÃ©g": 6581,
      "Ġ1992": 6582,
      "Ġtoit": 6583,
      "Ġtonnes": 6584,
      "ĠvallÃ©e": 6585,
      "ĠlÃ¢": 6586,
      "chestre": 6587,
      "Ġtentative": 6588,
      "ommÃ©": 6589,
      "lais": 6590,
      "Ġache": 6591,
      "lerie": 6592,
      "olesc": 6593,
      "Ġrevoir": 6594,
      "inn": 6595,
      "Ġmajeur": 6596,
      "Ġsoutenu": 6597,
      "eron": 6598,
      "32": 6599,
      "igration": 6600,
      "Ġquinze": 6601,
      "ĠNeu": 6602,
      "ĠGÃ©r": 6603,
      "Ġimage": 6604,
      "ĠStreet": 6605,
      "Ġtourner": 6606,
      "Ġsitue": 6607,
      "ĠpassÃ©e": 6608,
      "ropri": 6609,
      "Ġchien": 6610,
      "Ġmouvements": 6611,
      "Ġsouverain": 6612,
      "ĠmaÃ®tres": 6613,
      "ĠHug": 6614,
      "ĠcrÃ©e": 6615,
      "ĠTrÃ¨s": 6616,
      "ĠapprÃ©ci": 6617,
      "ĠplaÃ®t": 6618,
      "dent": 6619,
      "ĠorganisÃ©e": 6620,
      "ĠMis": 6621,
      "ĠenregistrÃ©": 6622,
      "ĠmatÃ©riel": 6623,
      "Ġ-,": 6624,
      "Ġgross": 6625,
      "Ġclass": 6626,
      "Ġavoc": 6627,
      "Ġchaud": 6628,
      "Ġaugmentation": 6629,
      "Ġcontrats": 6630,
      "Ã©ter": 6631,
      "Ġcerc": 6632,
      "Ġemploi": 6633,
      "Ġfre": 6634,
      "ĠÃ©change": 6635,
      "Ġsalaire": 6636,
      "ĠextrÃªmement": 6637,
      "ĠMah": 6638,
      "ĠBi": 6639,
      "istant": 6640,
      "ĠRam": 6641,
      "Ġroyaume": 6642,
      "ĠagrÃ©": 6643,
      "ĠdÃ©lÃ©gu": 6644,
      "Ġpassion": 6645,
      "Ġpouvoirs": 6646,
      "Ġfondateur": 6647,
      "Ġrappeler": 6648,
      "ĠStÃ©phane": 6649,
      "Ġvoisin": 6650,
      "igu": 6651,
      "Ġ600": 6652,
      "ĠManuel": 6653,
      "ĠPhil": 6654,
      "Ġ1993": 6655,
      "ĠÃ©lectorale": 6656,
      "Ġhistoriques": 6657,
      "ĠDimanche": 6658,
      "avis": 6659,
      "Ġparlementaire": 6660,
      "effet": 6661,
      "wood": 6662,
      "tenue": 6663,
      "Ġfacilement": 6664,
      "ĠDenis": 6665,
      "inÃ©e": 6666,
      "vite": 6667,
      "arque": 6668,
      "Ġnet": 6669,
      "oÃ®t": 6670,
      "ĠIsraÃ«l": 6671,
      "ĠrÃ©duit": 6672,
      "Ġsoutient": 6673,
      "ĠBarcelon": 6674,
      "Ġbron": 6675,
      "ĠdÃ©mocratique": 6676,
      "39": 6677,
      "ally": 6678,
      "Ġ>": 6679,
      "Ġdistin": 6680,
      "nÃ©es": 6681,
      "44": 6682,
      "ĠrÃ©action": 6683,
      "ĠMexique": 6684,
      "Ġdescend": 6685,
      "ĠpensÃ©e": 6686,
      "Ġbleu": 6687,
      "Ġattendu": 6688,
      "erson": 6689,
      "ĠSNC": 6690,
      "Ġbelles": 6691,
      "Ġfu": 6692,
      "Ġinflu": 6693,
      "Ġlogement": 6694,
      "ĠdÃ©buts": 6695,
      "Ġannon": 6696,
      "oeuvre": 6697,
      "ople": 6698,
      "Ġtextes": 6699,
      "ĠbeautÃ©": 6700,
      "Ġartistique": 6701,
      "Ġposer": 6702,
      "ouvrir": 6703,
      "ĠYou": 6704,
      "indÃ©pendance": 6705,
      "Ã©vÃ©nement": 6706,
      "31": 6707,
      "ĠmontÃ©e": 6708,
      "Ġsoumis": 6709,
      "oigne": 6710,
      "Ġhumain": 6711,
      "ĠinvitÃ©": 6712,
      "ĠDie": 6713,
      "Ġpoly": 6714,
      "aure": 6715,
      "Ġtome": 6716,
      "Ġparall": 6717,
      "ĠOp": 6718,
      "Ġchantier": 6719,
      "Ġcombats": 6720,
      "Ġactes": 6721,
      "riche": 6722,
      "Ã¢t": 6723,
      "ĠmodÃ¨les": 6724,
      "Ġarchite": 6725,
      "Ġden": 6726,
      "Ġoublier": 6727,
      "Ġcartes": 6728,
      "Ġsanctions": 6729,
      "ĠtraÃ®": 6730,
      "Ġpensais": 6731,
      "Ġesprit": 6732,
      "Ġreligion": 6733,
      "Ġsalon": 6734,
      "ĠreconnaÃ®t": 6735,
      "Ġfabri": 6736,
      "ME": 6737,
      "Ġroutes": 6738,
      "aites": 6739,
      "ĠBerg": 6740,
      "tz": 6741,
      "Re": 6742,
      "Ġpur": 6743,
      "oyÃ©": 6744,
      "Ġfondament": 6745,
      "Ġaffec": 6746,
      "Ġlogements": 6747,
      "Ġcomportement": 6748,
      "Ġchances": 6749,
      "ĠIns": 6750,
      "rain": 6751,
      "ho": 6752,
      "Ġtransports": 6753,
      "Ġved": 6754,
      "time": 6755,
      "Ġvague": 6756,
      "Ġordin": 6757,
      "ĠRep": 6758,
      "Ġlecture": 6759,
      "ĠsÃ©qu": 6760,
      "mait": 6761,
      "Ġdiam": 6762,
      "ĠliÃ©s": 6763,
      "Ne": 6764,
      "Ġradic": 6765,
      "Ġsavait": 6766,
      "ĠsoupÃ§": 6767,
      "Ġpolon": 6768,
      "cessi": 6769,
      "Ġballon": 6770,
      "enz": 6771,
      "lot": 6772,
      "Ġcomptait": 6773,
      "ĠFond": 6774,
      "ĠVir": 6775,
      "Ã©lectricitÃ©": 6776,
      "Ġhui": 6777,
      "Ġtraite": 6778,
      "ĠGÃ©n": 6779,
      "Ġrach": 6780,
      "ĠNational": 6781,
      "idence": 6782,
      "lÃ©s": 6783,
      "Ġseigneur": 6784,
      "Ġspectateurs": 6785,
      "ado": 6786,
      "alisÃ©s": 6787,
      "Ġbruit": 6788,
      "Ġcesse": 6789,
      "ĠÃ©vÃ©nement": 6790,
      "Ġperp": 6791,
      "Ġspati": 6792,
      "Ġcalend": 6793,
      "rogÃ©": 6794,
      "usage": 6795,
      "Ġerreur": 6796,
      "ouvre": 6797,
      "Ġcentaine": 6798,
      "Ġenregistre": 6799,
      "Iran": 6800,
      "ĠBell": 6801,
      "yo": 6802,
      "ĠLo": 6803,
      "DF": 6804,
      "Ġexperts": 6805,
      "aliers": 6806,
      "Ġislamique": 6807,
      "Ġgeste": 6808,
      "Ġdites": 6809,
      "Ġformula": 6810,
      "dir": 6811,
      "Ġhumains": 6812,
      "ĠÃ©lecteurs": 6813,
      "Ġtechnologie": 6814,
      "Ġtours": 6815,
      "Ġfinit": 6816,
      "ato": 6817,
      "Ġpanne": 6818,
      "Ġpoign": 6819,
      "DG": 6820,
      "ĠconsidÃ¨re": 6821,
      "ĠMerci": 6822,
      "ĠSteph": 6823,
      "terie": 6824,
      "mn": 6825,
      "Ġfleurs": 6826,
      "Ġauxqu": 6827,
      "Ġadjoint": 6828,
      "urait": 6829,
      "Ġpromotion": 6830,
      "ecture": 6831,
      "ĠSand": 6832,
      "Ġsch": 6833,
      "Ġ=": 6834,
      "Ġmob": 6835,
      "rite": 6836,
      "tins": 6837,
      "ĠtrÃ©s": 6838,
      "Ġmadame": 6839,
      "SS": 6840,
      "Ġconseils": 6841,
      "Ġdisponible": 6842,
      "49": 6843,
      "Ġpolicier": 6844,
      "ĠconfiÃ©": 6845,
      "Ġdemandes": 6846,
      "Ġretourner": 6847,
      "Ġmention": 6848,
      "uls": 6849,
      "Ġmurs": 6850,
      "Ġreprod": 6851,
      "Ġexamen": 6852,
      "burg": 6853,
      "Ġliens": 6854,
      "deur": 6855,
      "ĠprivilÃ©g": 6856,
      "Ġquartiers": 6857,
      "Ġmass": 6858,
      "Ġpublie": 6859,
      "Ġpassagers": 6860,
      "Ġdangereux": 6861,
      "Ã©rap": 6862,
      "ink": 6863,
      "expression": 6864,
      "Ã©tiques": 6865,
      "Ad": 6866,
      "house": 6867,
      "ĠtuÃ©s": 6868,
      "Ġgenti": 6869,
      "Ġinterdit": 6870,
      "ĠrÃ©flÃ©ch": 6871,
      "arition": 6872,
      "Ġinstitutions": 6873,
      "Ã©th": 6874,
      "46": 6875,
      "Ġcible": 6876,
      "ĠarmÃ©e": 6877,
      "ĠsystÃ¨mes": 6878,
      "cidents": 6879,
      "ouch": 6880,
      "!\"": 6881,
      "ĠUnited": 6882,
      "Ġvoter": 6883,
      "estÃ©": 6884,
      "Ġtransition": 6885,
      "ical": 6886,
      "Ġargu": 6887,
      "Reuters": 6888,
      "iat": 6889,
      "lantique": 6890,
      "ographe": 6891,
      "Ġparfaitement": 6892,
      "fices": 6893,
      "exposition": 6894,
      "ĠEsp": 6895,
      "lem": 6896,
      "Ġrapporte": 6897,
      "Ġproposer": 6898,
      "Ġcoupable": 6899,
      "endum": 6900,
      "ĠChristophe": 6901,
      "acu": 6902,
      "ĠliÃ©": 6903,
      "Ġconserver": 6904,
      "ĠÃ©lÃ©ment": 6905,
      "Ġpeintre": 6906,
      "ache": 6907,
      "ĠlÃ©gÃ¨rement": 6908,
      "Ġrepas": 6909,
      "Ġdialogue": 6910,
      "ĠfÃ©dÃ©rale": 6911,
      "ĠLong": 6912,
      "ster": 6913,
      "arrÃªter": 6914,
      "ĠcoÃ©quip": 6915,
      "losion": 6916,
      "Ġsemblent": 6917,
      "Ġdel": 6918,
      "Ã©nagement": 6919,
      "arth": 6920,
      "Orient": 6921,
      "ĠrÃ©el": 6922,
      "ĠÃ©missions": 6923,
      "Ġdame": 6924,
      "Ġbouche": 6925,
      "!...": 6926,
      "Ġcoach": 6927,
      "Ã©lÃ¨ve": 6928,
      "Ġ1991": 6929,
      "ĠdÃ©mocratie": 6930,
      "Ġinaug": 6931,
      "Ġwho": 6932,
      "ĠmÃ©thode": 6933,
      "ĠBourg": 6934,
      "Ġfun": 6935,
      "ĠCongrÃ¨s": 6936,
      "Ġfati": 6937,
      "ĠprÃ©cip": 6938,
      "ĠaugmentÃ©": 6939,
      "Ġpouvant": 6940,
      "Ġsuffit": 6941,
      "Ġactionn": 6942,
      "Ġsolutions": 6943,
      "uellement": 6944,
      "ĠFront": 6945,
      "Ġmm": 6946,
      "ulle": 6947,
      "ĠMil": 6948,
      "Ġcourage": 6949,
      "oiles": 6950,
      "Ġpourrais": 6951,
      "Ġdem": 6952,
      "ĠclÃ©": 6953,
      "ĠOutre": 6954,
      "ĠAnton": 6955,
      "ji": 6956,
      "Ġsourire": 6957,
      "Ġdevront": 6958,
      "Ġlongueur": 6959,
      "55": 6960,
      "ĠAUS": 6961,
      "ĠeffectuÃ©": 6962,
      "aga": 6963,
      "bi": 6964,
      "ĠdÃ©cÃ©dÃ©": 6965,
      "Ġexpliquer": 6966,
      "Ġmaman": 6967,
      "Ġremport": 6968,
      "Ġfermeture": 6969,
      "De": 6970,
      "ĠfondÃ©": 6971,
      "Ġcertainement": 6972,
      "Ġmagni": 6973,
      "Ġvon": 6974,
      "Ġdevaient": 6975,
      "Ġparoles": 6976,
      "ĠcoÃ»te": 6977,
      "uant": 6978,
      "Ġcomplet": 6979,
      "ĠcollÃ¨ge": 6980,
      "impact": 6981,
      "Ġ42": 6982,
      "ĠdÃ©placement": 6983,
      "ĠprÃªte": 6984,
      "Ġexactement": 6985,
      "Ã©preuve": 6986,
      "mo": 6987,
      "Ġfrappe": 6988,
      "Ã¨vre": 6989,
      "Ġconservateur": 6990,
      "Ġbrill": 6991,
      "ĠsÃ»re": 6992,
      "Ġouvre": 6993,
      "Ġsor": 6994,
      "enser": 6995,
      "ĠTunis": 6996,
      "And": 6997,
      "Ġsemblait": 6998,
      "ibliothÃ¨que": 6999,
      "199": 7000,
      "ĠAllez": 7001,
      "Ġsecteurs": 7002,
      "ommun": 7003,
      "ĠBarcelone": 7004,
      "ĠpensÃ©": 7005,
      "ĠTok": 7006,
      "ĠlibÃ©ration": 7007,
      "tistes": 7008,
      "champ": 7009,
      "ĠutilisÃ©e": 7010,
      "uisent": 7011,
      "ĠcomplÃ¨te": 7012,
      "Ġparticipants": 7013,
      "Ġpropositions": 7014,
      "ĠAUSSI": 7015,
      "Ġul": 7016,
      "Ġcirconstances": 7017,
      "Ġcorruption": 7018,
      "ĠdÃ©ficit": 7019,
      "Ġdiffusion": 7020,
      "Ġcollabor": 7021,
      "intention": 7022,
      "Ġpouvons": 7023,
      "ĠSl": 7024,
      "ĠFre": 7025,
      "Ġamie": 7026,
      "ĠprÃ©t": 7027,
      "ocr": 7028,
      "irs": 7029,
      "veaux": 7030,
      "ĠappelÃ©e": 7031,
      "ĠthÃ©orie": 7032,
      "ĠLIRE": 7033,
      "itiÃ©": 7034,
      "ĠCalifornie": 7035,
      "ĠRet": 7036,
      "ĠLaur": 7037,
      "Ġalg": 7038,
      "Ġmaintien": 7039,
      "IC": 7040,
      "ordinaire": 7041,
      "Ġrepar": 7042,
      "rlande": 7043,
      "entement": 7044,
      "ĠBra": 7045,
      "ĠRoger": 7046,
      "Ġdram": 7047,
      "housi": 7048,
      "Ġpermettra": 7049,
      "ĠCamp": 7050,
      "ĠmÃ©tÃ©": 7051,
      "Ġcontro": 7052,
      "%).": 7053,
      "ĠBarack": 7054,
      "ĠFed": 7055,
      "agissait": 7056,
      "rine": 7057,
      "Ġrenforcer": 7058,
      "accident": 7059,
      "ĠdÃ©terminer": 7060,
      "ĠDominique": 7061,
      "Ġoriginaire": 7062,
      "aves": 7063,
      "ĠGilles": 7064,
      "tario": 7065,
      "Ġmalade": 7066,
      "Ġblessures": 7067,
      "bonne": 7068,
      "Ã´les": 7069,
      "agements": 7070,
      "Ġtrent": 7071,
      "Ġjusque": 7072,
      "Ġconsommateurs": 7073,
      "enfants": 7074,
      "Ġoffrir": 7075,
      "intervention": 7076,
      "ĠrÃ©tab": 7077,
      "aband": 7078,
      "Ġvoici": 7079,
      "Ġ49": 7080,
      "identitÃ©": 7081,
      "ĠrentrÃ©e": 7082,
      "Ġate": 7083,
      "Ã©rÃ©es": 7084,
      "ĠpropriÃ©taires": 7085,
      "rom": 7086,
      "Ġoeu": 7087,
      "Ġrepouss": 7088,
      "Ġcouvert": 7089,
      "chÃ©es": 7090,
      "Ġhan": 7091,
      "aises": 7092,
      "Ġadapt": 7093,
      "ĠsiÃ¨ges": 7094,
      "exercice": 7095,
      "ardi": 7096,
      "Ġfuite": 7097,
      "ĠPic": 7098,
      "Ġvesti": 7099,
      "Ġchevaux": 7100,
      "quante": 7101,
      "blement": 7102,
      "Ġci": 7103,
      "ĠLeague": 7104,
      "GT": 7105,
      "wan": 7106,
      "Ġfavorable": 7107,
      "amÃ©": 7108,
      "Ġargent": 7109,
      "Ġlangues": 7110,
      "Ġup": 7111,
      "Ġfusion": 7112,
      "anitÃ©": 7113,
      "Ġ1989": 7114,
      "Ġfans": 7115,
      "Ġsoin": 7116,
      "'t": 7117,
      "Ġinternationales": 7118,
      "ĠGroupe": 7119,
      "usine": 7120,
      "Ġdossiers": 7121,
      "Ġinstant": 7122,
      "ĠrÃ©vÃ©lÃ©": 7123,
      "Ġjaune": 7124,
      "Ġprinces": 7125,
      "ĠHaute": 7126,
      "Ġautomobile": 7127,
      "univers": 7128,
      "Ġmul": 7129,
      "alcool": 7130,
      "agog": 7131,
      "mblÃ©e": 7132,
      "attaquant": 7133,
      "Ġretirer": 7134,
      "Ġattentats": 7135,
      "ĠlancÃ©e": 7136,
      "ĠNouveau": 7137,
      "ĠastÃ©roÃ¯": 7138,
      "Ġdimen": 7139,
      "Ġminimum": 7140,
      "eck": 7141,
      "Ġconvaincre": 7142,
      "habitude": 7143,
      "....": 7144,
      "Ġvolume": 7145,
      "ĠStan": 7146,
      "Paul": 7147,
      "athan": 7148,
      "ĠfrappÃ©": 7149,
      "ĠremplacÃ©": 7150,
      "Ġcous": 7151,
      "ĠrÃ¨gne": 7152,
      "FR": 7153,
      "Bl": 7154,
      "Ġimpressionn": 7155,
      "Ġsm": 7156,
      "plus": 7157,
      "ĠÃ©mer": 7158,
      "attention": 7159,
      "ower": 7160,
      "Ġdifficiles": 7161,
      "amedi": 7162,
      "Ġconcept": 7163,
      "ĠIm": 7164,
      "Ġorganisations": 7165,
      "Ġprogression": 7166,
      "Ġpeinture": 7167,
      "ĠStu": 7168,
      "Ġguit": 7169,
      "Ġfruits": 7170,
      "BA": 7171,
      "Ġfacil": 7172,
      "ĠGold": 7173,
      "mentation": 7174,
      "Acad": 7175,
      "grand": 7176,
      "Ġwere": 7177,
      "Ġremet": 7178,
      "ĠAmÃ©rique": 7179,
      "Ġcommandant": 7180,
      "ĠhÃ©r": 7181,
      "Agence": 7182,
      "Ġaper": 7183,
      "olÃ©e": 7184,
      "Ġsporti": 7185,
      "Ġmaill": 7186,
      "ĠrÃ©sistance": 7187,
      "Ġsavais": 7188,
      "ĠDE": 7189,
      "Ġbrig": 7190,
      "ĠMiss": 7191,
      "ingue": 7192,
      "IT": 7193,
      "ĠmÃ¨ne": 7194,
      "Ġpropor": 7195,
      "dis": 7196,
      "Ġdisant": 7197,
      "ĠBenoÃ®t": 7198,
      "Ġcra": 7199,
      "Ġcalendrier": 7200,
      "ĠadoptÃ©": 7201,
      "pro": 7202,
      "Ġcommen": 7203,
      "ĠRoyal": 7204,
      "ĠBruno": 7205,
      "Åĵurs": 7206,
      "Ġguer": 7207,
      "Ġtire": 7208,
      "89": 7209,
      "Ġtoucher": 7210,
      "Ġsignific": 7211,
      "rone": 7212,
      "ba": 7213,
      "ĠGÃ©rard": 7214,
      "Ġmettant": 7215,
      "ĠToutes": 7216,
      "Ġprev": 7217,
      "ties": 7218,
      "jug": 7219,
      "ĠPrÃ©sident": 7220,
      "Ġ800": 7221,
      "avi": 7222,
      "Ġinformation": 7223,
      "Ġmachine": 7224,
      "ĠingÃ©n": 7225,
      "raction": 7226,
      "Ġperfor": 7227,
      "indice": 7228,
      "Ãªtres": 7229,
      "Ġadversaire": 7230,
      "criptions": 7231,
      "Ġstudio": 7232,
      "core": 7233,
      "itaine": 7234,
      "abeth": 7235,
      "Ġjugement": 7236,
      "Ġfinances": 7237,
      "ora": 7238,
      "ĠKim": 7239,
      "ataires": 7240,
      "cial": 7241,
      "ĠrÃ©alisation": 7242,
      "Ġapporter": 7243,
      "ĠformÃ©": 7244,
      "Ġvoisins": 7245,
      "alli": 7246,
      "affir": 7247,
      "65": 7248,
      "._": 7249,
      "ward": 7250,
      "Ġblan": 7251,
      "bach": 7252,
      "ĠprÃ©cÃ©dente": 7253,
      "ĠPÃ©kin": 7254,
      "ĠAmer": 7255,
      "ĠPol": 7256,
      "Ġcandidature": 7257,
      "Ġexempl": 7258,
      "Ġvendu": 7259,
      "wn": 7260,
      "OL": 7261,
      "Ġmeilleures": 7262,
      "Ġvaloir": 7263,
      "ĠqualifiÃ©": 7264,
      "Ġconvers": 7265,
      "AcadÃ©mie": 7266,
      "Ġexam": 7267,
      "anda": 7268,
      "Ġdrame": 7269,
      "ĠdÃ©lic": 7270,
      "ĠArn": 7271,
      "Ġ47": 7272,
      "anth": 7273,
      "Ġdisque": 7274,
      "Ġ44": 7275,
      "Ġwhich": 7276,
      "Ġrire": 7277,
      "endroit": 7278,
      "ĠbÃ©nÃ©fice": 7279,
      "Ġutilise": 7280,
      "Ã¨che": 7281,
      "ĠDÃ©fense": 7282,
      "ght": 7283,
      "DE": 7284,
      "oyez": 7285,
      "Ġer": 7286,
      "ĠMari": 7287,
      "Ġtaxe": 7288,
      "oure": 7289,
      "ositÃ©": 7290,
      "Åĵil": 7291,
      "aujourd": 7292,
      "Ġinvestissements": 7293,
      "ĠGaz": 7294,
      "Ġinterrog": 7295,
      "Ġaudi": 7296,
      "Ġpluie": 7297,
      "Ġonze": 7298,
      "Ġsolide": 7299,
      "ĠsÃ©jour": 7300,
      "install": 7301,
      "ĠÃ©ti": 7302,
      "Ġund": 7303,
      "Ġfortune": 7304,
      "ĠNet": 7305,
      "Ġchanteuse": 7306,
      "ĠprogrÃ¨s": 7307,
      "ĠOttawa": 7308,
      "ĠComitÃ©": 7309,
      "application": 7310,
      "Ġdisparition": 7311,
      "ĠsÃ©p": 7312,
      "Ġfur": 7313,
      "ĠGil": 7314,
      "Ġplateau": 7315,
      "obtenir": 7316,
      "Dame": 7317,
      "Ġefficace": 7318,
      "Ġvoies": 7319,
      "ĠThier": 7320,
      "Ġvig": 7321,
      "ulaires": 7322,
      "Ġsalles": 7323,
      "chn": 7324,
      "ĠAmÃ©ricains": 7325,
      "ĠrestÃ©": 7326,
      "ĠrÃ©mun": 7327,
      "ĠSeconde": 7328,
      "Ġfortes": 7329,
      "ĠBarb": 7330,
      "oudre": 7331,
      "Ġtourne": 7332,
      "uns": 7333,
      "iction": 7334,
      "Ġmicro": 7335,
      "ervatoire": 7336,
      "Ġmagn": 7337,
      "Ġenqu": 7338,
      "ĠInf": 7339,
      "ĠmÃ©decine": 7340,
      "ĠHu": 7341,
      "tible": 7342,
      "pÃ¨re": 7343,
      "ibilitÃ©": 7344,
      "ury": 7345,
      "ĠQuatre": 7346,
      "Ġrespecter": 7347,
      "ĠarrÃªter": 7348,
      "ĠMilan": 7349,
      "ĠvÃªtements": 7350,
      "analyse": 7351,
      "ĠAv": 7352,
      "Ġ(-": 7353,
      "Ġconduire": 7354,
      "ĠJoe": 7355,
      "Ġrecense": 7356,
      "Ġflam": 7357,
      "Ġcourses": 7358,
      "ĠdÃ©cret": 7359,
      "ĠrÃ©flexion": 7360,
      "ĠrÃ©alisÃ©e": 7361,
      "ouvÃ©": 7362,
      "Can": 7363,
      "Ġassociation": 7364,
      "Ġrebelles": 7365,
      "ĠfaÃ§": 7366,
      "Ġcontenu": 7367,
      "Ġappli": 7368,
      "ĠÃ®les": 7369,
      "ysÃ©e": 7370,
      "Ġallant": 7371,
      "Ġremplacer": 7372,
      "Ġfe": 7373,
      "ĠPan": 7374,
      "Ġwould": 7375,
      "Ġrapports": 7376,
      "ussitÃ´t": 7377,
      "ĠconsÃ©quence": 7378,
      "ĠgÃ©rer": 7379,
      "aments": 7380,
      "ĠPersonne": 7381,
      "ĠrÃ©vÃ¨le": 7382,
      "auvres": 7383,
      "illets": 7384,
      "Ã´mes": 7385,
      "Ġpun": 7386,
      "Ġmusulmans": 7387,
      "Ġtempor": 7388,
      "ĠActualitÃ©s": 7389,
      "ĠarmÃ©es": 7390,
      "ĠrÃ©cit": 7391,
      "ĠsuprÃªme": 7392,
      "Ġaccusations": 7393,
      "ompe": 7394,
      "ĠCatherine": 7395,
      "arie": 7396,
      "Ġsportif": 7397,
      "Ã©cart": 7398,
      "willer": 7399,
      "ctu": 7400,
      "chester": 7401,
      "Ġadap": 7402,
      "Ġanalyse": 7403,
      "ĠforcÃ©ment": 7404,
      "Ġtranspar": 7405,
      "ref": 7406,
      "ĠdirigÃ©": 7407,
      "Ġacteur": 7408,
      "pi": 7409,
      "acts": 7410,
      "42": 7411,
      "kh": 7412,
      "IntÃ©rieur": 7413,
      "UMP": 7414,
      "Ġfiliale": 7415,
      "ĠBut": 7416,
      "Ġcomprom": 7417,
      "Ãīcole": 7418,
      "Ġtourisme": 7419,
      "Ġabou": 7420,
      "ĠMike": 7421,
      "ĠinstallÃ©": 7422,
      "Ġmobile": 7423,
      "manie": 7424,
      "Ġfonctionnement": 7425,
      "ĠJulien": 7426,
      "cteurs": 7427,
      "Ġchapelle": 7428,
      "onf": 7429,
      "ĠMonaco": 7430,
      "Ġart": 7431,
      "ĠIer": 7432,
      "ĠQuelle": 7433,
      "Ġrelativement": 7434,
      "ĠCeux": 7435,
      "dicap": 7436,
      "MT": 7437,
      "ĠfrontiÃ¨res": 7438,
      "ĠWorld": 7439,
      "orge": 7440,
      "RC": 7441,
      "Ġpav": 7442,
      "Ġover": 7443,
      "Ġprochains": 7444,
      "ĠessayÃ©": 7445,
      "ignements": 7446,
      "adop": 7447,
      "ĠCN": 7448,
      "ĠcomposÃ©e": 7449,
      "irurg": 7450,
      "Ġvivent": 7451,
      "Ġoccupe": 7452,
      "ĠMarg": 7453,
      "ĠfondÃ©e": 7454,
      "elin": 7455,
      "empereur": 7456,
      "Luc": 7457,
      "ĠmÃ©rite": 7458,
      "Ġdirigeant": 7459,
      "ourde": 7460,
      "ĠLille": 7461,
      "Ġtriste": 7462,
      "85": 7463,
      "ĠsixiÃ¨me": 7464,
      "Ġvertu": 7465,
      "Ã©bas": 7466,
      "Ġdonnent": 7467,
      "uisant": 7468,
      "licitÃ©": 7469,
      "iterran": 7470,
      "Ġ03": 7471,
      "ĠfermÃ©": 7472,
      "Ġbo": 7473,
      "Ġ250": 7474,
      "ĠFoot": 7475,
      "Ã¢me": 7476,
      "ĠnÃ©er": 7477,
      "Ġcirconscription": 7478,
      "Ġscandale": 7479,
      "gentine": 7480,
      "Ġaccueill": 7481,
      "ĠRol": 7482,
      "ĠAntoine": 7483,
      "ĠAngle": 7484,
      "ĠLis": 7485,
      "Ġentretien": 7486,
      "ĠMaria": 7487,
      "Ġhasard": 7488,
      "ayant": 7489,
      "ral": 7490,
      "Ġenvir": 7491,
      "tt": 7492,
      "Es": 7493,
      "Ġbasse": 7494,
      "Ġterritoires": 7495,
      "Ġabsolument": 7496,
      "Ġ46": 7497,
      "Ġitalienne": 7498,
      "Bretagne": 7499,
      "onnant": 7500,
      "Ġannuel": 7501,
      "ĠrÃ©fÃ©rendum": 7502,
      "lÃ¨te": 7503,
      "Ġsoud": 7504,
      "Ġrur": 7505,
      "Ġstup": 7506,
      "Ġlatin": 7507,
      "bs": 7508,
      "Ġpeup": 7509,
      "ĠÃ©norme": 7510,
      "ĠSuper": 7511,
      "ĠEnv": 7512,
      "ĠCS": 7513,
      "Ġpodium": 7514,
      "Ġcommissaire": 7515,
      "Ġculte": 7516,
      "ĠreprÃ©sentent": 7517,
      "Ġespace": 7518,
      "Ġouvrir": 7519,
      "Ġsuisse": 7520,
      "OT": 7521,
      "Ġarts": 7522,
      "ĠdÃ©posÃ©": 7523,
      "Ġordres": 7524,
      "rans": 7525,
      "Åį": 7526,
      "Ġpartager": 7527,
      "Ġbureaux": 7528,
      "Ġmonn": 7529,
      "ĠprioritÃ©": 7530,
      "Op": 7531,
      "ĠReal": 7532,
      "Ġfar": 7533,
      "ĠrÃ©jou": 7534,
      "orp": 7535,
      "enheim": 7536,
      "ĠTÃ©l": 7537,
      "ĠmÃ¢": 7538,
      "Ġmagistr": 7539,
      "ĠfÃ©minin": 7540,
      "Ġmec": 7541,
      "ĠLui": 7542,
      "Ġconfie": 7543,
      "ĠBat": 7544,
      "Ġespagn": 7545,
      "Ġfasse": 7546,
      "Ġparfait": 7547,
      "rime": 7548,
      "ĠThierry": 7549,
      "intes": 7550,
      "ĠcomplÃ©": 7551,
      "Ġpartenaire": 7552,
      "ĠInternational": 7553,
      "ĠLux": 7554,
      "ĠSantÃ©": 7555,
      "ĠAFP": 7556,
      "ieuses": 7557,
      "ĠRenÃ©": 7558,
      "ject": 7559,
      "Ġmagasin": 7560,
      "ĠChez": 7561,
      "Ġsacri": 7562,
      "Ec": 7563,
      "union": 7564,
      "crire": 7565,
      "Ġfailli": 7566,
      "ĠFN": 7567,
      "ĠUS": 7568,
      "IA": 7569,
      "ĠsolidaritÃ©": 7570,
      "Ġsortant": 7571,
      "Ġarticles": 7572,
      "ĠPSG": 7573,
      "ĠMaj": 7574,
      "aph": 7575,
      "ĠQuÃ©bÃ©cois": 7576,
      "ĠJournal": 7577,
      "ĠJones": 7578,
      "Ġmonument": 7579,
      "Ġautonom": 7580,
      "Ġrig": 7581,
      "umÃ©e": 7582,
      "Ġrecons": 7583,
      "Ġmultiples": 7584,
      "Ġproducteur": 7585,
      "orting": 7586,
      "essi": 7587,
      "Ġriches": 7588,
      "Ġ1988": 7589,
      "ĠMoyen": 7590,
      "ĠdiffÃ©rent": 7591,
      "Ġdouleur": 7592,
      "ĠAcc": 7593,
      "opt": 7594,
      "ĠPascal": 7595,
      "orce": 7596,
      "Ġlogique": 7597,
      "Ã©bastien": 7598,
      "Ġindic": 7599,
      "Ġperturb": 7600,
      "ĠdÃ©marche": 7601,
      "ĠdÃ©bats": 7602,
      "Ġpauvres": 7603,
      "Ã©galitÃ©": 7604,
      "Ġmix": 7605,
      "Ġpotentiel": 7606,
      "iance": 7607,
      "ĠcollÃ¨gues": 7608,
      "raine": 7609,
      "ĠCH": 7610,
      "ĠChampionnat": 7611,
      "Ġferait": 7612,
      "Ġjaunes": 7613,
      "Ġplaid": 7614,
      "ogan": 7615,
      "Ġessayer": 7616,
      "ĠdÃ©tention": 7617,
      "attent": 7618,
      "Ġremarqu": 7619,
      "ĠfinanciÃ¨res": 7620,
      "chev": 7621,
      "rochÃ©": 7622,
      "ĠdÃ©veloppÃ©": 7623,
      "Ġregroup": 7624,
      "aum": 7625,
      "Ã©an": 7626,
      "Ġappartient": 7627,
      "ĠAngleterre": 7628,
      "Ġbox": 7629,
      "Ġatten": 7630,
      "entir": 7631,
      "ĠboÃ®te": 7632,
      "krain": 7633,
      "jon": 7634,
      "tile": 7635,
      "agnies": 7636,
      "ĠGrÃ¢ce": 7637,
      "endredi": 7638,
      "quisition": 7639,
      "Ġcostu": 7640,
      "Esp": 7641,
      "ial": 7642,
      "ĠclassÃ©": 7643,
      "ĠrÃ¨glement": 7644,
      "ds": 7645,
      "ĠrÃ©cupÃ©rer": 7646,
      "Ġtransfert": 7647,
      "Ġbio": 7648,
      "Ġplong": 7649,
      "ayer": 7650,
      "obilier": 7651,
      "Ġchronique": 7652,
      "antaine": 7653,
      "ĠprÃ©vis": 7654,
      "Ġastronom": 7655,
      "Ġcivils": 7656,
      "Ġdevrais": 7657,
      "ariste": 7658,
      "ĠMadame": 7659,
      "Ġpatient": 7660,
      "ĠopÃ©ra": 7661,
      "ĠenquÃªteurs": 7662,
      "ĠGau": 7663,
      "Ġrevi": 7664,
      "Ġ1950": 7665,
      "ther": 7666,
      "ĠutilisÃ©s": 7667,
      "ĠinvitÃ©s": 7668,
      "Ġlutter": 7669,
      "Ġterritori": 7670,
      "ida": 7671,
      "Ġclasses": 7672,
      "tils": 7673,
      "euve": 7674,
      "Ġmanche": 7675,
      "orÃ©e": 7676,
      "Ġsubst": 7677,
      "Ġdeb": 7678,
      "Ġleaders": 7679,
      "Ġvaisse": 7680,
      "euse": 7681,
      "ĠCro": 7682,
      "Ġconsiste": 7683,
      "Ġaspect": 7684,
      "Ġrugby": 7685,
      "Ġrespectivement": 7686,
      "ĠreconnaÃ®tre": 7687,
      "Ġfleur": 7688,
      "estations": 7689,
      "ĠÃ©voque": 7690,
      "impÃ´t": 7691,
      "Empire": 7692,
      "Ġdrogue": 7693,
      "Ġthis": 7694,
      "ĠprÃ©sentation": 7695,
      "%),": 7696,
      "Ġpla": 7697,
      "Ġinterne": 7698,
      "influence": 7699,
      "Ġfaudrait": 7700,
      "Ġmotiv": 7701,
      "Ġdirait": 7702,
      "iditÃ©": 7703,
      "43": 7704,
      "ĠMonte": 7705,
      "ĠrÃ©formes": 7706,
      "Ġniveaux": 7707,
      "Australie": 7708,
      "Ġsupporters": 7709,
      "mosph": 7710,
      "ĠunitÃ©s": 7711,
      "Ġpassionn": 7712,
      "Ġ120": 7713,
      "Ġvole": 7714,
      "Ġperforman": 7715,
      "Ġmatern": 7716,
      "Ġjuges": 7717,
      "ĠrÃ©gionale": 7718,
      "Ġorganise": 7719,
      "ĠCÃ´te": 7720,
      "rimin": 7721,
      "Ġsurpris": 7722,
      "ĠAug": 7723,
      "Ġ88": 7724,
      "ĠLar": 7725,
      "ĠÃ©pisode": 7726,
      "ĠMÃ©d": 7727,
      "ĠvÃ©g": 7728,
      "Ġsovi": 7729,
      "ĠSol": 7730,
      "Ġoccas": 7731,
      "ĠprÃ©venu": 7732,
      "aies": 7733,
      "Ġdrape": 7734,
      "ĠFillon": 7735,
      "Ġacheter": 7736,
      "Ġpure": 7737,
      "Ġapproche": 7738,
      "Ġhu": 7739,
      "ĠSamedi": 7740,
      "ĠprovoquÃ©": 7741,
      "aura": 7742,
      "Ġcime": 7743,
      "ĠMas": 7744,
      "ĠMarcel": 7745,
      "Ġlongues": 7746,
      "Ġcents": 7747,
      "ĠÃ©pous": 7748,
      "Ġjury": 7749,
      "Ġbag": 7750,
      "Ġamende": 7751,
      "ĠMÃ©l": 7752,
      "Ġagent": 7753,
      "ĠIV": 7754,
      "Ġcourte": 7755,
      "ensÃ©": 7756,
      "ĠTch": 7757,
      "Ġnew": 7758,
      "ĠJosÃ©": 7759,
      "Ġ1975": 7760,
      "ĠtÃ©moins": 7761,
      "aissez": 7762,
      "Ġfournir": 7763,
      "Ġcompagnies": 7764,
      "Ġvols": 7765,
      "Ã©curitÃ©": 7766,
      "Mich": 7767,
      "Ġhein": 7768,
      "Ġquarts": 7769,
      "lon": 7770,
      "Ġlaissant": 7771,
      "Ã©viter": 7772,
      "Ġrume": 7773,
      "Ġ43": 7774,
      "Ġaugmenter": 7775,
      "akistan": 7776,
      "aimerais": 7777,
      "Ġvan": 7778,
      "ĠPortugal": 7779,
      "Ã©gal": 7780,
      "ĠguÃ¨re": 7781,
      "ĠindÃ©pendant": 7782,
      "ancel": 7783,
      "nant": 7784,
      "ĠtÃ©moin": 7785,
      "rophe": 7786,
      "istoires": 7787,
      "ated": 7788,
      "Ġbourg": 7789,
      "AF": 7790,
      "Ġnavires": 7791,
      "vern": 7792,
      "vÃ©es": 7793,
      "ĠComb": 7794,
      "Ã©riques": 7795,
      "Ã©chapp": 7796,
      "royable": 7797,
      "lications": 7798,
      "Ġski": 7799,
      "Ġdorm": 7800,
      "Ã©conom": 7801,
      "Ġchacune": 7802,
      "IR": 7803,
      "ĠliÃ©es": 7804,
      "Ġphilosophie": 7805,
      "ĠHenry": 7806,
      "ĠRio": 7807,
      "Ġboulot": 7808,
      "Ġinterview": 7809,
      "OC": 7810,
      "Ġfleuve": 7811,
      "ĠamÃ©liorer": 7812,
      "osh": 7813,
      "ĠlÃ©gÃ¨re": 7814,
      "Ġproducteurs": 7815,
      "Ġmettent": 7816,
      "Ġhandicap": 7817,
      "Ġsoign": 7818,
      "ĠcoopÃ©ration": 7819,
      "Ġexige": 7820,
      "41": 7821,
      "ĠconsacrÃ©": 7822,
      "ĠCos": 7823,
      "Ġphras": 7824,
      "ĠPoli": 7825,
      "Ġpopulations": 7826,
      "ĠdÃ©roule": 7827,
      "arrive": 7828,
      "Ġmarques": 7829,
      "aluation": 7830,
      "Ġdisponibles": 7831,
      "ĠpersonnalitÃ©s": 7832,
      "77": 7833,
      "Ġtw": 7834,
      "meuble": 7835,
      "ĠGren": 7836,
      "Ġtroupe": 7837,
      "Ġfonde": 7838,
      "ĠBach": 7839,
      "Ġroyale": 7840,
      "Ġapport": 7841,
      "Ã©tation": 7842,
      "ĠfÃªtes": 7843,
      "rovi": 7844,
      "Ġinn": 7845,
      "ĠFig": 7846,
      "Ġachet": 7847,
      "Ġrusses": 7848,
      "ulsion": 7849,
      "Ġbronze": 7850,
      "mitÃ©": 7851,
      "Ġgrimp": 7852,
      "ĠdÃ©noncÃ©": 7853,
      "Ġdurable": 7854,
      "Ġremporter": 7855,
      "ĠvidÃ©os": 7856,
      "Ġ1986": 7857,
      "ĠOk": 7858,
      "ĠdiffusÃ©": 7859,
      "ĠEnsuite": 7860,
      "Ġrose": 7861,
      "Ġressemble": 7862,
      "ĠGui": 7863,
      "Ġhyd": 7864,
      "ĠVar": 7865,
      "ĠMaurice": 7866,
      "Ġpositif": 7867,
      "Ġavion": 7868,
      "ĠtempÃ©rature": 7869,
      "ensitÃ©": 7870,
      "Pour": 7871,
      "mber": 7872,
      "Ġavocats": 7873,
      "miÃ¨res": 7874,
      "Ġcm": 7875,
      "Ġoise": 7876,
      "Ã©ran": 7877,
      "Ġlogici": 7878,
      "Ġboute": 7879,
      "Ġsyri": 7880,
      "Ġjoin": 7881,
      "Ġlait": 7882,
      "Ġdevi": 7883,
      "ĠVill": 7884,
      "ĠImp": 7885,
      "Ġtypes": 7886,
      "alem": 7887,
      "Ġmore": 7888,
      "ĠdonnÃ©e": 7889,
      "Ġrup": 7890,
      "ĠdÃ®ner": 7891,
      "cel": 7892,
      "Ġpartenariat": 7893,
      "ĠdÃ©grad": 7894,
      "ĠEli": 7895,
      "ambassade": 7896,
      "Ġnat": 7897,
      "ĠprÃ©tend": 7898,
      "MA": 7899,
      "ĠSuÃ¨de": 7900,
      "ĠRac": 7901,
      "Ġtrentaine": 7902,
      "ĠStade": 7903,
      "ĠchargÃ©e": 7904,
      "Ġmidi": 7905,
      "ention": 7906,
      "Ġgamme": 7907,
      "ĠPetit": 7908,
      "ĠexÃ©c": 7909,
      "mands": 7910,
      "ĠFinances": 7911,
      "Ġpouvaient": 7912,
      "Ġpertes": 7913,
      "eneur": 7914,
      "Ġbeen": 7915,
      "Ġsys": 7916,
      "Ġouvrage": 7917,
      "Ġprenant": 7918,
      "Ġregroupe": 7919,
      "Ġbassin": 7920,
      "ĠprÃ©fÃ¨re": 7921,
      "ignon": 7922,
      "Ġavenir": 7923,
      "Ġchamb": 7924,
      "ĠRon": 7925,
      "Ġadmis": 7926,
      "Ġballes": 7927,
      "ĠvotÃ©": 7928,
      "ĠSin": 7929,
      "ĠprivÃ©s": 7930,
      "Ġ41": 7931,
      "ĠIci": 7932,
      "iness": 7933,
      "ĠprÃ©fecture": 7934,
      "Ġsympath": 7935,
      "Ġrass": 7936,
      "ĠaccompagnÃ©": 7937,
      "ĠHill": 7938,
      "hommes": 7939,
      "Ġmajoritaire": 7940,
      "Ġcomposi": 7941,
      "yer": 7942,
      "Ġsentir": 7943,
      "Ġexposition": 7944,
      "Ġrecettes": 7945,
      "ĠtÃ¢che": 7946,
      "Ġcerveau": 7947,
      "aindre": 7948,
      "Ġfiscale": 7949,
      "Ġsuffisamment": 7950,
      "Ġtac": 7951,
      "ardins": 7952,
      "Ġcouverture": 7953,
      "ĠSab": 7954,
      "Ġsculp": 7955,
      "ĠCaroline": 7956,
      "TS": 7957,
      "Ġdj": 7958,
      "eral": 7959,
      "autoritÃ©": 7960,
      "Ġfrancs": 7961,
      "actualitÃ©": 7962,
      "arrondissement": 7963,
      "Claude": 7964,
      "ĠNantes": 7965,
      "ĠGabri": 7966,
      "ĠempÃªcher": 7967,
      "Ġrevers": 7968,
      "Ġpoursuite": 7969,
      "ĠChicago": 7970,
      "Ġculturel": 7971,
      "Ġstatistiques": 7972,
      "Marc": 7973,
      "Ġnomination": 7974,
      "Ġchirurg": 7975,
      "ĠTokyo": 7976,
      "ĠExp": 7977,
      "armer": 7978,
      "inaison": 7979,
      "tise": 7980,
      "St": 7981,
      "ĠSerge": 7982,
      "Ã¼r": 7983,
      "arra": 7984,
      "Ġmys": 7985,
      "Ġindividus": 7986,
      "ĠquantitÃ©": 7987,
      "Ġmontrent": 7988,
      "Ã¨vres": 7989,
      "pas": 7990,
      "Ã©drale": 7991,
      "issements": 7992,
      "Ġsavent": 7993,
      "Ġdig": 7994,
      "onnais": 7995,
      "ĠoccupÃ©": 7996,
      "tesse": 7997,
      "ĠintitulÃ©": 7998,
      "ĠÃ©glise": 7999,
      "Ġcrit": 8000,
      "Ġ1000": 8001,
      "tell": 8002,
      "Ġec": 8003,
      "ĠrÃ©ussite": 8004,
      "ĠContr": 8005,
      "oui": 8006,
      "Ġhi": 8007,
      "Ġspir": 8008,
      "Ġnormal": 8009,
      "Ġmusiciens": 8010,
      "Ġrej": 8011,
      "amed": 8012,
      "Ġformule": 8013,
      "\"\"": 8014,
      "Ġsexe": 8015,
      "Ġsanction": 8016,
      "entend": 8017,
      "Ġtennis": 8018,
      "Ġmarquer": 8019,
      "Ġbillets": 8020,
      "oliques": 8021,
      "Ġinvent": 8022,
      "esseurs": 8023,
      "chait": 8024,
      "initiative": 8025,
      "Ġbaptis": 8026,
      "Ġmajeure": 8027,
      "Ġavantage": 8028,
      "ĠStar": 8029,
      "Ġengagement": 8030,
      "Ġvoulons": 8031,
      "Ġtiss": 8032,
      "Ġdonnant": 8033,
      "Ġsoix": 8034,
      "ĠÃ©ditions": 8035,
      "Ã©criv": 8036,
      "ĠSteve": 8037,
      "Ġlimites": 8038,
      "rÃ©v": 8039,
      "ĠscÃ¨nes": 8040,
      "Ã©cution": 8041,
      "oniques": 8042,
      "reurs": 8043,
      "ĠAth": 8044,
      "Ġexerc": 8045,
      "lÃ©gation": 8046,
      "Ġcommandes": 8047,
      "Ġtranquille": 8048,
      "Ġanticip": 8049,
      "Ġconfond": 8050,
      "Ã©change": 8051,
      "Ġiran": 8052,
      "ĠhÃ©s": 8053,
      "Ġjournaux": 8054,
      "Ġpoule": 8055,
      "Ġgraves": 8056,
      "ĠRenault": 8057,
      "Ġprovo": 8058,
      "agir": 8059,
      "Ġtests": 8060,
      "pellier": 8061,
      "ĠexpÃ©riment": 8062,
      "agan": 8063,
      "Ġtheir": 8064,
      "Ġvirus": 8065,
      "Ġnourriture": 8066,
      "ĠPy": 8067,
      "ologues": 8068,
      "ĠÃ©voquÃ©": 8069,
      "asme": 8070,
      "agriculture": 8071,
      "Ġjuridique": 8072,
      "ĠMy": 8073,
      "ĠcomÃ©die": 8074,
      "Ġlourde": 8075,
      "ĠÃ©crire": 8076,
      "ĠdÃ©clarations": 8077,
      "Ġmonte": 8078,
      "fiques": 8079,
      "Ġcardin": 8080,
      "ĠfÃ©lic": 8081,
      "ĠbrÃ©sil": 8082,
      "Ġnez": 8083,
      "ĠaÃ®": 8084,
      "lera": 8085,
      "Ġduo": 8086,
      "ĠassociÃ©": 8087,
      "entiels": 8088,
      "obles": 8089,
      "ĠLim": 8090,
      "Ġapprendre": 8091,
      "ĠVl": 8092,
      "ĠPark": 8093,
      "Ġrouges": 8094,
      "Ġ1984": 8095,
      "Ġperformances": 8096,
      "ĠMic": 8097,
      "ĠHan": 8098,
      "ĠRoland": 8099,
      "Ġdite": 8100,
      "Ġvoient": 8101,
      "71": 8102,
      "ĠdÃ©finitivement": 8103,
      "Com": 8104,
      "Ġ>>": 8105,
      "Ġinternationaux": 8106,
      "ĠdÃ©veloppe": 8107,
      "Ġdomaines": 8108,
      "Ġaccueillir": 8109,
      "ĠmÃ©dicaments": 8110,
      "PA": 8111,
      "ĠcommunautÃ©s": 8112,
      "Ġbac": 8113,
      "ĠeÃ»t": 8114,
      "ĠcinÃ©": 8115,
      "ĠbasÃ©": 8116,
      "ghanistan": 8117,
      "Ġchape": 8118,
      "ĠTop": 8119,
      "Ġplantes": 8120,
      "ĠFern": 8121,
      "68": 8122,
      "illir": 8123,
      "ĠRa": 8124,
      "Ġimpact": 8125,
      "the": 8126,
      "ĠNos": 8127,
      "ĠprÃ©cisÃ©ment": 8128,
      "Ġdiscuter": 8129,
      "ĠmatinÃ©e": 8130,
      "lez": 8131,
      "Ġtechnologies": 8132,
      "ĠÃ©volue": 8133,
      "ÃªchÃ©": 8134,
      "Ġpapa": 8135,
      "ĠVendredi": 8136,
      "ĠKing": 8137,
      "ĠspÃ©ciale": 8138,
      "ĠJeu": 8139,
      "ĠmanquÃ©": 8140,
      "Ġkg": 8141,
      "ĠconsÃ©c": 8142,
      "ĠBelle": 8143,
      "ronews": 8144,
      "veiller": 8145,
      "ĠOuais": 8146,
      "ĠLang": 8147,
      "ĠÎ": 8148,
      "acifique": 8149,
      "ĠdiffusÃ©e": 8150,
      "Ġcrimes": 8151,
      "Ġprior": 8152,
      "mane": 8153,
      "interpr": 8154,
      "Ġuns": 8155,
      "Ġrequ": 8156,
      "ĠDÃ©c": 8157,
      "Ġmesse": 8158,
      "TR": 8159,
      "Ġvillages": 8160,
      "ĠÃ©changes": 8161,
      "Ġprovisoire": 8162,
      "Ġcongr": 8163,
      "ocrates": 8164,
      "ĠgarÃ§ons": 8165,
      "Ġmobilisation": 8166,
      "uste": 8167,
      "Ġaxe": 8168,
      "Ġsigner": 8169,
      "Ġfinancer": 8170,
      "xic": 8171,
      "ĠColombie": 8172,
      "erry": 8173,
      "alistes": 8174,
      "ĠRoi": 8175,
      "Ġsondage": 8176,
      "han": 8177,
      "ĠPDG": 8178,
      "Ġfermer": 8179,
      "Ġpare": 8180,
      "dits": 8181,
      "appui": 8182,
      "Ġluxe": 8183,
      "ĠrÃ©putation": 8184,
      "Ġcass": 8185,
      "ĠmÃ©tro": 8186,
      "gel": 8187,
      "Ġexpos": 8188,
      "dict": 8189,
      "ataire": 8190,
      "opinion": 8191,
      "Ġrestauration": 8192,
      "ĠsupplÃ©mentaire": 8193,
      "Ġfich": 8194,
      "Ġhypoth": 8195,
      "Ġcout": 8196,
      "Ġtensions": 8197,
      "ĠdÃ©couvre": 8198,
      "ĠprÃ©sentÃ©e": 8199,
      "Ġchor": 8200,
      "Ġarabe": 8201,
      "ensif": 8202,
      "dam": 8203,
      "ĠRi": 8204,
      "Ġpromo": 8205,
      "Ġcontient": 8206,
      "rastructures": 8207,
      "Ġperspective": 8208,
      "Ġpharm": 8209,
      "umul": 8210,
      "Ġappuy": 8211,
      "ount": 8212,
      "ĠAussi": 8213,
      "ĠCy": 8214,
      "ĠPrin": 8215,
      "Ġjustement": 8216,
      "Ã©coise": 8217,
      "ĠTex": 8218,
      "ĠapportÃ©": 8219,
      "ĠÃ©toiles": 8220,
      "Ġprovinces": 8221,
      "ĠMusÃ©e": 8222,
      "ĠJustice": 8223,
      "Ġ1987": 8224,
      "ep": 8225,
      "tige": 8226,
      "isÃ©es": 8227,
      "ĠdÃ©roul": 8228,
      "deux": 8229,
      "tures": 8230,
      "exception": 8231,
      "Ġdestination": 8232,
      "ĠHarper": 8233,
      "Ġpeint": 8234,
      "excl": 8235,
      "Ã©lu": 8236,
      "ĠastÃ©roÃ¯de": 8237,
      "Ġserai": 8238,
      "Ġcaus": 8239,
      "Ġbritanniques": 8240,
      "glom": 8241,
      "agner": 8242,
      "Ġmusicale": 8243,
      "ĠQuoi": 8244,
      "Ġdjihad": 8245,
      "Ġcomprends": 8246,
      "ĠcomplÃ©ment": 8247,
      "Ġ85": 8248,
      "Ġincar": 8249,
      "Ġlever": 8250,
      "ĠaussitÃ´t": 8251,
      "Ġrestera": 8252,
      "Ġaccueille": 8253,
      "ĠIt": 8254,
      "Ġferrovi": 8255,
      "ĠConstitution": 8256,
      "ĠtournÃ©": 8257,
      "ĠdÃ©cider": 8258,
      "Ġfonctionnaires": 8259,
      "Ġamateurs": 8260,
      "Ã¨dent": 8261,
      "neurs": 8262,
      "Ġ1945": 8263,
      "ĠprÃ©pare": 8264,
      "ĠentiÃ¨re": 8265,
      "ribue": 8266,
      "Ġmagasins": 8267,
      "Ġartiste": 8268,
      "cap": 8269,
      "Ġshow": 8270,
      "ĠmathÃ©m": 8271,
      "riÃ¨res": 8272,
      "Ġmang": 8273,
      "ella": 8274,
      "ĠCommun": 8275,
      "ĠpubliÃ©s": 8276,
      "ĠoubliÃ©": 8277,
      "NH": 8278,
      "ded": 8279,
      "ese": 8280,
      "Ġconnus": 8281,
      "Ġlabel": 8282,
      "Ġopport": 8283,
      "sim": 8284,
      "Ġpossibles": 8285,
      "Ġmodern": 8286,
      "Ġnett": 8287,
      "approche": 8288,
      "Ġtraces": 8289,
      "ĠKur": 8290,
      "engage": 8291,
      "dienne": 8292,
      "aguen": 8293,
      "Ġmetronews": 8294,
      "Ġ52": 8295,
      "Ġplat": 8296,
      "ouf": 8297,
      "lip": 8298,
      "olis": 8299,
      "Ġchaleur": 8300,
      "ĠÃ©lection": 8301,
      "incendie": 8302,
      "Ġpuissant": 8303,
      "ajouter": 8304,
      "Ġamoureux": 8305,
      "ĠrÃ©vol": 8306,
      "ĠÃ©par": 8307,
      "uner": 8308,
      "Ġpositions": 8309,
      "Ġpreuves": 8310,
      "Ġpossession": 8311,
      "ĠManchester": 8312,
      "ĠCannes": 8313,
      "urÃ©s": 8314,
      "veurs": 8315,
      "erves": 8316,
      "Ġcoute": 8317,
      "Ġ#": 8318,
      "Ġactifs": 8319,
      "ĠToujours": 8320,
      "ĠSNCF": 8321,
      "Ã¨ques": 8322,
      "67": 8323,
      "Ã©tition": 8324,
      "ĠnommÃ©e": 8325,
      "ĠHal": 8326,
      "Ã©quilibre": 8327,
      "ĠLaval": 8328,
      "ĠdÃ©ta": 8329,
      "autes": 8330,
      "Ġheur": 8331,
      "ĠdÃ©bute": 8332,
      "ĠEv": 8333,
      "utiliser": 8334,
      "Ġgouvernements": 8335,
      "Ġindisp": 8336,
      "dÃ©m": 8337,
      "olÃ©on": 8338,
      "Ġprisonniers": 8339,
      "Ġ1944": 8340,
      "ĠXVI": 8341,
      "ĠaimÃ©": 8342,
      "Ġemmen": 8343,
      "orient": 8344,
      "Ġinterp": 8345,
      "rome": 8346,
      "ardo": 8347,
      "Ġportent": 8348,
      "Alsace": 8349,
      "irent": 8350,
      "astÃ©roÃ¯": 8351,
      "accus": 8352,
      "rue": 8353,
      "Ġarbit": 8354,
      "Ġfondation": 8355,
      "Ġtrains": 8356,
      "Ġparvient": 8357,
      "effec": 8358,
      "Ġtitulaire": 8359,
      "fond": 8360,
      "Ġprends": 8361,
      "Ġsaou": 8362,
      "ican": 8363,
      "Ġapprend": 8364,
      "Et": 8365,
      "Ġchampionnats": 8366,
      "Ġmissions": 8367,
      "ĠreprÃ©sentation": 8368,
      "ivalent": 8369,
      "Ġconclut": 8370,
      "Ġcomposition": 8371,
      "Ġcharges": 8372,
      "ĠJÃ©s": 8373,
      "comp": 8374,
      "Ġsuscep": 8375,
      "Ġceci": 8376,
      "Ġimporte": 8377,
      "Ġfuture": 8378,
      "finale": 8379,
      "ĠÃ©pr": 8380,
      "PD": 8381,
      "Ġ1985": 8382,
      "ĠcongrÃ¨s": 8383,
      "impos": 8384,
      "ĠValls": 8385,
      "Ġplaf": 8386,
      "mit": 8387,
      "ails": 8388,
      "obe": 8389,
      "venus": 8390,
      "Ġexplic": 8391,
      "ĠdestinÃ©": 8392,
      "ĠSmith": 8393,
      "Ġsuspension": 8394,
      "ĠÃ©mission": 8395,
      "ĠpayÃ©": 8396,
      "ĠRiv": 8397,
      "Ġbanlieu": 8398,
      "entendre": 8399,
      "Ġromp": 8400,
      "Ġfan": 8401,
      "inton": 8402,
      "Ed": 8403,
      "ĠMontpellier": 8404,
      "Ġadultes": 8405,
      "hr": 8406,
      "Alex": 8407,
      "ĠrÃ©solution": 8408,
      "Ġplay": 8409,
      "Ġdocumentaire": 8410,
      "uz": 8411,
      "ĠWi": 8412,
      "eneurs": 8413,
      "gra": 8414,
      "ĠTon": 8415,
      "enis": 8416,
      "ĠprÃ©fÃ©rÃ©": 8417,
      "ĠBeaucoup": 8418,
      "Ġarbres": 8419,
      "ĠMondial": 8420,
      "ĠdÃ©d": 8421,
      "69": 8422,
      "ĠSw": 8423,
      "ĠrÃ©agi": 8424,
      "hip": 8425,
      "Ġ1982": 8426,
      "Ġprime": 8427,
      "ĠprofitÃ©": 8428,
      "Ġweb": 8429,
      "ĠWilliams": 8430,
      "Ġconception": 8431,
      "oche": 8432,
      "ĠYves": 8433,
      "illy": 8434,
      "ĠSports": 8435,
      "Ġbranche": 8436,
      "CA": 8437,
      "Ġthey": 8438,
      "ĠÃ©pisodes": 8439,
      "lette": 8440,
      "ĠrÃ©daction": 8441,
      "Ġcenti": 8442,
      "ĠtombÃ©": 8443,
      "Ġdiscussion": 8444,
      "Ġlieutenant": 8445,
      "adresse": 8446,
      "atti": 8447,
      "ĠMaroc": 8448,
      "ĠNav": 8449,
      "ommÃ©e": 8450,
      "Ġact": 8451,
      "pre": 8452,
      "occuper": 8453,
      "ĠVen": 8454,
      "ĠCanadiens": 8455,
      "Ġenregistr": 8456,
      "quants": 8457,
      "Ġterrible": 8458,
      "Ġ1940": 8459,
      "Ġos": 8460,
      "Ġrentre": 8461,
      "ĠvÃ©tÃ©": 8462,
      "gi": 8463,
      "hÃ´ne": 8464,
      "Ġadversaires": 8465,
      "bor": 8466,
      "hal": 8467,
      "Ġpause": 8468,
      "ĠStephen": 8469,
      "aisons": 8470,
      "Ġfaisaient": 8471,
      "ouillard": 8472,
      "88": 8473,
      "Ġfranco": 8474,
      "ĠTrav": 8475,
      "apes": 8476,
      "ĠcaractÃ©ristiques": 8477,
      "Ġuniversitaire": 8478,
      "ĠKevin": 8479,
      "ĠliÃ©e": 8480,
      "ĠgÃ©nie": 8481,
      "Canada": 8482,
      "ĠSÃ©bastien": 8483,
      "ĠAngl": 8484,
      "ĠbudgÃ©taire": 8485,
      "Ġclimatique": 8486,
      "Ġagricole": 8487,
      "ĠLuxemb": 8488,
      "05": 8489,
      "ĠparticuliÃ¨re": 8490,
      "mbler": 8491,
      "ĠMcC": 8492,
      "Ġtouristes": 8493,
      "Ġconcerts": 8494,
      "ennies": 8495,
      "ĠReste": 8496,
      "uise": 8497,
      "Ġanc": 8498,
      "chef": 8499,
      "ĠLand": 8500,
      "Ġmerveille": 8501,
      "mÃ¨re": 8502,
      "Ġprincipes": 8503,
      "IE": 8504,
      "tellectu": 8505,
      "ĠÃ©loign": 8506,
      "Ã©mi": 8507,
      "Ġpalestin": 8508,
      "Ġ1968": 8509,
      "Ġsuperfici": 8510,
      "ĠrÃ©pondit": 8511,
      "ĠdÃ©mis": 8512,
      "teau": 8513,
      "Ġaffron": 8514,
      "Ġexcell": 8515,
      "xit": 8516,
      "ords": 8517,
      "ĠdÃ©cennies": 8518,
      "ĠPalais": 8519,
      "Ã©rences": 8520,
      "abelle": 8521,
      "Ġprofondeur": 8522,
      "Ġactif": 8523,
      "icale": 8524,
      "Ġratta": 8525,
      "uge": 8526,
      "Ġpic": 8527,
      "umin": 8528,
      "incl": 8529,
      "cha": 8530,
      "Em": 8531,
      "ĠrapportÃ©": 8532,
      "Ġspiritu": 8533,
      "Ġlangage": 8534,
      "lui": 8535,
      "ĠCO": 8536,
      "avre": 8537,
      "oft": 8538,
      "Ġconstate": 8539,
      "Ġlarg": 8540,
      "ĠbÃ©nÃ©v": 8541,
      "Ã©ron": 8542,
      "Ġimmense": 8543,
      "Ġassist": 8544,
      "Ġmaladies": 8545,
      "Ġexport": 8546,
      "ĠTimes": 8547,
      "ĠgÃª": 8548,
      "ĠÃītat": 8549,
      "endrait": 8550,
      "Ġsouvenirs": 8551,
      "ĠdÃ©passe": 8552,
      "ĠMass": 8553,
      "agÃ©es": 8554,
      "Ġparu": 8555,
      "Ġdisputer": 8556,
      "ĠdestinÃ©e": 8557,
      "Ġdiscipline": 8558,
      "erbro": 8559,
      "seu": 8560,
      "ĠEncore": 8561,
      "ĠMartine": 8562,
      "Ġ$.": 8563,
      "Ġdeg": 8564,
      "Ġrede": 8565,
      "Mon": 8566,
      "ĠPres": 8567,
      "ĠEuropÃ©": 8568,
      "Ġvedette": 8569,
      "rÃ¨": 8570,
      "Ã©chelle": 8571,
      "trage": 8572,
      "Ġfabrication": 8573,
      "Ġcraign": 8574,
      "ĠSeine": 8575,
      "tez": 8576,
      "adel": 8577,
      "amer": 8578,
      "Ġfallu": 8579,
      "ĠdÃ©pit": 8580,
      "87": 8581,
      "Ġparcour": 8582,
      "chauff": 8583,
      "cons": 8584,
      "ĠrÃ©di": 8585,
      "ĠpublicitÃ©": 8586,
      "ĠApple": 8587,
      "Ġaient": 8588,
      "Ġel": 8589,
      "ĠFort": 8590,
      "Ġparent": 8591,
      "ĠDiv": 8592,
      "Ã©rait": 8593,
      "Ġartif": 8594,
      "versÃ©": 8595,
      "ĠcompÃ©tences": 8596,
      "Ġnavig": 8597,
      "Ġsoeur": 8598,
      "ĠvÃ©lo": 8599,
      "Ġsignature": 8600,
      "Ġgre": 8601,
      "ĠAucun": 8602,
      "actrice": 8603,
      "Ġmos": 8604,
      "Ġcommandement": 8605,
      "ĠGri": 8606,
      "jÃł": 8607,
      "unn": 8608,
      "tron": 8609,
      "ĠAdam": 8610,
      "Ġhy": 8611,
      "ĠcimetiÃ¨re": 8612,
      "ĠJustin": 8613,
      "Ġintellectu": 8614,
      "ĠSix": 8615,
      "ffe": 8616,
      "ĠRÃ©volution": 8617,
      "ĠcomÃ©di": 8618,
      "Ġprit": 8619,
      "Ġsombre": 8620,
      "Vous": 8621,
      "Ġissus": 8622,
      "Ġterminer": 8623,
      "Ġpilotes": 8624,
      "sch": 8625,
      "Ġsecondaire": 8626,
      "lect": 8627,
      "ĠDÃ©b": 8628,
      "ĠcathÃ©drale": 8629,
      "Ġterrorisme": 8630,
      "vey": 8631,
      "ĠOff": 8632,
      "zi": 8633,
      "ĠchaÃ®nes": 8634,
      "Ġmarcher": 8635,
      "Ġpouvais": 8636,
      "Ġchapitre": 8637,
      "ĠsÃ©nateur": 8638,
      "uie": 8639,
      "ĠrÃ©gler": 8640,
      "ĠJohnson": 8641,
      "Ġcertif": 8642,
      "ĠlibÃ©raux": 8643,
      "ĠPIB": 8644,
      "Ġaccepter": 8645,
      "Ġhauts": 8646,
      "Ġsouffle": 8647,
      "Ġautrement": 8648,
      "Ġ1981": 8649,
      "59": 8650,
      "humanitÃ©": 8651,
      "Ġvoudrais": 8652,
      "ĠdÃ©nonce": 8653,
      "Ġboulevard": 8654,
      "ĠVienne": 8655,
      "LE": 8656,
      "ĠLiÃ¨ge": 8657,
      "Ġ700": 8658,
      "lons": 8659,
      "orable": 8660,
      "ĠReuters": 8661,
      "Ġang": 8662,
      "Ġaustral": 8663,
      "Ġsinon": 8664,
      "Ġformations": 8665,
      "oureuse": 8666,
      "Ã¨gre": 8667,
      "hib": 8668,
      "Ġmaillot": 8669,
      "aventure": 8670,
      "Ġvoyageurs": 8671,
      "ĠÃ©conomie": 8672,
      "ĠÃ©clair": 8673,
      "Ġcommuniste": 8674,
      "Ġintervention": 8675,
      "Ġnotes": 8676,
      "Ġpasses": 8677,
      "Ġconfort": 8678,
      "oulin": 8679,
      "ancy": 8680,
      "Ġrupture": 8681,
      "ĠclÃ´": 8682,
      "Ġendroits": 8683,
      "hom": 8684,
      "Ġmunicipales": 8685,
      "ĠRegarde": 8686,
      "ĠcarrÃ©": 8687,
      "Ġusage": 8688,
      "ĠsiÃ¨cles": 8689,
      "gie": 8690,
      "bour": 8691,
      "ĠdoublÃ©": 8692,
      "ernes": 8693,
      "ĠmonÃ©taire": 8694,
      "Ġqualification": 8695,
      "organisme": 8696,
      "Ġsuccessi": 8697,
      "ĠdÃ©pÃ´t": 8698,
      "Ġaffect": 8699,
      "euro": 8700,
      "Ġbri": 8701,
      "ĠNad": 8702,
      "Ġreligieuse": 8703,
      "Ġanciennes": 8704,
      "Ġcertes": 8705,
      "Ġincap": 8706,
      "Ġconseillers": 8707,
      "Ġrelais": 8708,
      "ĠrÃ©volu": 8709,
      "ĠRT": 8710,
      "ĠstratÃ©gique": 8711,
      "Ã©criture": 8712,
      "ĠCroix": 8713,
      "ĠDar": 8714,
      "Ġdevint": 8715,
      "Ġestiment": 8716,
      "ĠMario": 8717,
      "Michel": 8718,
      "ĠBir": 8719,
      "ĠlocalitÃ©": 8720,
      "ommages": 8721,
      "Ġnations": 8722,
      "ĠaccordÃ©": 8723,
      "aya": 8724,
      "abilitÃ©s": 8725,
      "Ġfroi": 8726,
      "Ġchinoise": 8727,
      "Ġ51": 8728,
      "Ġrapproche": 8729,
      "Inde": 8730,
      "ĠconÃ§": 8731,
      "ĠAub": 8732,
      "ĠmaÃ®trise": 8733,
      "ouvoir": 8734,
      "Ġnormes": 8735,
      "Ġronde": 8736,
      "Ġtor": 8737,
      "ĠBlanc": 8738,
      "mide": 8739,
      "Ġpassent": 8740,
      "Ġvacc": 8741,
      "balle": 8742,
      "ilets": 8743,
      "essentiel": 8744,
      "Ġplage": 8745,
      "Ġdor": 8746,
      "ĠRyan": 8747,
      "ĠÃ©val": 8748,
      "immigration": 8749,
      "Ġphotograph": 8750,
      "Ġdevez": 8751,
      "alette": 8752,
      "57": 8753,
      "Ġconducteur": 8754,
      "outez": 8755,
      "Ġviande": 8756,
      "Ġdynamique": 8757,
      "archie": 8758,
      "ĠThÃ©Ã¢tre": 8759,
      "ĠÅ": 8760,
      "ĠrÃ©ellement": 8761,
      "Ġsaut": 8762,
      "Ġdestruction": 8763,
      "astÃ©roÃ¯des": 8764,
      "Ġhaine": 8765,
      "ĠpersonnalitÃ©": 8766,
      "Ġremonte": 8767,
      "ĠachetÃ©": 8768,
      "ĠLag": 8769,
      "Ġblancs": 8770,
      "ĠfixÃ©": 8771,
      "Ġlimiter": 8772,
      "ĠdÃ©lai": 8773,
      "Ġterroriste": 8774,
      "Ġbillet": 8775,
      "Ġinfluence": 8776,
      "ĠdisputÃ©": 8777,
      "PE": 8778,
      "Ġsignes": 8779,
      "ĠTar": 8780,
      "sier": 8781,
      "ild": 8782,
      "ĠdÃ©je": 8783,
      "ĠrÃ©publicain": 8784,
      "ĠLoire": 8785,
      "ĠHall": 8786,
      "ĠdÃ©truit": 8787,
      "ĠTony": 8788,
      "Ġconstruite": 8789,
      "augmentation": 8790,
      "ĠimpÃ©ri": 8791,
      "Ġconservateurs": 8792,
      "Ġespagnole": 8793,
      "Ġnoter": 8794,
      "Ġforts": 8795,
      "Ġdiffus": 8796,
      "ĠappelÃ©s": 8797,
      "ĠNik": 8798,
      "Ġhect": 8799,
      "Ġutile": 8800,
      "Ġloy": 8801,
      "Ġ1983": 8802,
      "allen": 8803,
      "las": 8804,
      "ĠBertrand": 8805,
      "Ġquarante": 8806,
      "abe": 8807,
      "rÃ¨te": 8808,
      "ĠdÃ©chets": 8809,
      "ĠNews": 8810,
      "ily": 8811,
      "effic": 8812,
      "ĠScott": 8813,
      "osex": 8814,
      "jamin": 8815,
      "ĠInde": 8816,
      "reuves": 8817,
      "arbit": 8818,
      "Ġparticuliers": 8819,
      "Ġcann": 8820,
      "Ġlaboratoire": 8821,
      "Ġspectacles": 8822,
      "SE": 8823,
      "Ġserais": 8824,
      "Ġmol": 8825,
      "Ġ57": 8826,
      "ĠÃ¢me": 8827,
      "ĠdÃ©butÃ©": 8828,
      "ĠTourn": 8829,
      "Ġdioc": 8830,
      "ĠlimitÃ©": 8831,
      "Ġadolesc": 8832,
      "Ġprofil": 8833,
      "Ġsymbole": 8834,
      "ĠMary": 8835,
      "Ġdispute": 8836,
      "corÃ©": 8837,
      "Ġsalaires": 8838,
      "Ġ1979": 8839,
      "ĠDidier": 8840,
      "Ġretourne": 8841,
      "instruction": 8842,
      "Ġparlementaires": 8843,
      "ĠfÃ»t": 8844,
      "Ġcord": 8845,
      "mÃ©n": 8846,
      "chard": 8847,
      "ĠBretagne": 8848,
      "Ġconfirmer": 8849,
      "ĠDor": 8850,
      "ĠclÃ©s": 8851,
      "Ġrangs": 8852,
      "ĠRock": 8853,
      "Ġterroristes": 8854,
      "ĠdÃ©mocrate": 8855,
      "Ġdict": 8856,
      "Ġboire": 8857,
      "Mais": 8858,
      "Ġore": 8859,
      "ĠÃ©cras": 8860,
      "ogue": 8861,
      "56": 8862,
      "Ġressembl": 8863,
      "Ġconstructeur": 8864,
      "ĠJeff": 8865,
      "imposer": 8866,
      "Ġmerci": 8867,
      "oste": 8868,
      "Ã©bec": 8869,
      "ĠCast": 8870,
      "ĠMathieu": 8871,
      "ĠconstatÃ©": 8872,
      "Ãªts": 8873,
      "bdom": 8874,
      "umes": 8875,
      "Ã¨vement": 8876,
      "ouille": 8877,
      "enreg": 8878,
      "Ġconven": 8879,
      "Air": 8880,
      "Ġbiz": 8881,
      "Ġset": 8882,
      "Ã©lie": 8883,
      "ĠMali": 8884,
      "Ġsimples": 8885,
      "ĠgÃ©nÃ©": 8886,
      "attente": 8887,
      "ĠLam": 8888,
      "ĠService": 8889,
      "ĠinspirÃ©": 8890,
      "ĠMÃ©": 8891,
      "Une": 8892,
      "bdomad": 8893,
      "islam": 8894,
      "acitÃ©s": 8895,
      "Ġmessages": 8896,
      "Ã©rieurs": 8897,
      "Ġtravaillent": 8898,
      "Ġmac": 8899,
      "ĠdÃ©place": 8900,
      "ĠGreen": 8901,
      "ĠconstituÃ©": 8902,
      "ĠArt": 8903,
      "Ġtournage": 8904,
      "Ġdomes": 8905,
      "Ġbouc": 8906,
      "Ġconvaincu": 8907,
      "Ġeau": 8908,
      "ĠfenÃªtre": 8909,
      "Ġcontribution": 8910,
      "siÃ¨re": 8911,
      "onnÃ©es": 8912,
      "Ġone": 8913,
      "Ġrobe": 8914,
      "Ġcommerciale": 8915,
      "antal": 8916,
      "ĠJuste": 8917,
      "Ġ89": 8918,
      "ĠpÃ©": 8919,
      "Ġtch": 8920,
      "Ġappareils": 8921,
      "Ġtroph": 8922,
      "Ġence": 8923,
      "dez": 8924,
      "ĠquÃ©bÃ©coise": 8925,
      "stac": 8926,
      "Ġscolaires": 8927,
      "Ġappartenant": 8928,
      "Ġcamion": 8929,
      "Ã±": 8930,
      "field": 8931,
      "oler": 8932,
      "ĠRap": 8933,
      "kov": 8934,
      "Ġconvention": 8935,
      "Ġ1976": 8936,
      "Ġoutils": 8937,
      "ureau": 8938,
      "Ġterrains": 8939,
      "ĠShe": 8940,
      "roÃ®": 8941,
      "ĠrÃ©unis": 8942,
      "Ġverg": 8943,
      "ĠLÃ©on": 8944,
      "oblig": 8945,
      "ĠNov": 8946,
      "ĠimposÃ©": 8947,
      "Ġgratuite": 8948,
      "Ã©gard": 8949,
      "Ġbot": 8950,
      "ĠprÃªtre": 8951,
      "Ġtension": 8952,
      "landaise": 8953,
      "Ġurg": 8954,
      "Ġ53": 8955,
      "Ġnettement": 8956,
      "Ġhonn": 8957,
      "Ġinitialement": 8958,
      "ĠFont": 8959,
      "Ġsexuelle": 8960,
      "ĠmÃ©nages": 8961,
      "Ġmenaces": 8962,
      "Ġenter": 8963,
      "ĠAnn": 8964,
      "Ġhonte": 8965,
      "Ġmonnaie": 8966,
      "Ġlun": 8967,
      "Ġencad": 8968,
      "Ġgel": 8969,
      "ĠZe": 8970,
      "Ġcontrairement": 8971,
      "Ġfoss": 8972,
      "ification": 8973,
      "Ġpuissent": 8974,
      "ĠabandonnÃ©": 8975,
      "Ġculturelle": 8976,
      "qua": 8977,
      "Ġastronomique": 8978,
      "ĠenchaÃ®": 8979,
      "atar": 8980,
      "ĠBoston": 8981,
      "Ġappels": 8982,
      "engagement": 8983,
      "Ġhistoires": 8984,
      "ĠalliÃ©s": 8985,
      "Ġcache": 8986,
      "Ġparvenir": 8987,
      "ĠbibliothÃ¨que": 8988,
      "Ġchemins": 8989,
      "axe": 8990,
      "Ġanglaise": 8991,
      "58": 8992,
      "Ġplant": 8993,
      "ĠamÃ©n": 8994,
      "ular": 8995,
      "eller": 8996,
      "ĠÃ©crite": 8997,
      "orizon": 8998,
      "utive": 8999,
      "QuÃ©bec": 9000,
      "Ġrecensement": 9001,
      "OU": 9002,
      "Ġ54": 9003,
      "Ġappeler": 9004,
      "ĠmÃ©lange": 9005,
      "ĠMardi": 9006,
      "dont": 9007,
      "Ġparisien": 9008,
      "ĠBank": 9009,
      "Ġ56": 9010,
      "urrent": 9011,
      "Ġbarb": 9012,
      "ĠÃ©mo": 9013,
      "Ġprogressivement": 9014,
      "ĠpolÃ©mique": 9015,
      "Ġautomatique": 9016,
      "Ġprendra": 9017,
      "GC": 9018,
      "Ġger": 9019,
      "Ġtroubles": 9020,
      "Ġvot": 9021,
      "Ġsports": 9022,
      "ĠdÃ©liv": 9023,
      "accep": 9024,
      "Ġopposition": 9025,
      "Ġ68": 9026,
      "Ġbulle": 9027,
      "Ã§ants": 9028,
      "Ã©ricaine": 9029,
      "ĠVladi": 9030,
      "angers": 9031,
      "ingÃ©n": 9032,
      "iler": 9033,
      "igner": 9034,
      "ĠcommentÃ©": 9035,
      "ĠÃĤ": 9036,
      "ser": 9037,
      "ĠparallÃ¨le": 9038,
      "ĠdÃ©pass": 9039,
      "aim": 9040,
      "Ġabat": 9041,
      "Char": 9042,
      "ĠLuxembourg": 9043,
      "ĠClinton": 9044,
      "Ġessais": 9045,
      "Ġinond": 9046,
      "Ġincont": 9047,
      "Ġyou": 9048,
      "Ġsoul": 9049,
      "99": 9050,
      "cessible": 9051,
      "ĠpossÃ©d": 9052,
      "ĠJÃ©sus": 9053,
      "Ġtraverse": 9054,
      "Ġpain": 9055,
      "ĠCub": 9056,
      "Ġfoyer": 9057,
      "Laur": 9058,
      "Ġpromen": 9059,
      "IL": 9060,
      "agnos": 9061,
      "ĠCharlie": 9062,
      "ĠfÃª": 9063,
      "ĠrÃ©elle": 9064,
      "audience": 9065,
      "Ġprouver": 9066,
      "Ġmassac": 9067,
      "ĠjournÃ©es": 9068,
      "ĠprocÃ©dÃ©": 9069,
      "thur": 9070,
      "Ġcroix": 9071,
      "ĠdÃ©pos": 9072,
      "ĠCamb": 9073,
      "Ġrive": 9074,
      "Ã³n": 9075,
      "ĠIrak": 9076,
      "ĠCarlos": 9077,
      "ĠrÃ©cente": 9078,
      "Ġplateforme": 9079,
      "animation": 9080,
      "aule": 9081,
      "ĠJuan": 9082,
      "ator": 9083,
      "Ġarra": 9084,
      "Ġjambes": 9085,
      "Ġinterromp": 9086,
      "Ġ58": 9087,
      "Ġfamiliale": 9088,
      "Denis": 9089,
      "ĠdegrÃ©s": 9090,
      "Ġmyth": 9091,
      "ĠCÃ´tÃ©": 9092,
      "ĠemployÃ©": 9093,
      "Ġ67": 9094,
      "Ġ1977": 9095,
      "Ġmonuments": 9096,
      "ervation": 9097,
      "ĠPresse": 9098,
      "Ġissue": 9099,
      "ĠsuÃ©d": 9100,
      "Ġvins": 9101,
      "agen": 9102,
      "Ġsuicide": 9103,
      "ĠMerkel": 9104,
      "500": 9105,
      "altitude": 9106,
      "Ġunies": 9107,
      "ĠSing": 9108,
      "ĠvÃ©rifier": 9109,
      "ĠÃ©gyp": 9110,
      "Ġartifici": 9111,
      "Ġorganisateurs": 9112,
      "Ġcamar": 9113,
      "ĠqualitÃ©s": 9114,
      "ĠmarquÃ©e": 9115,
      "Th": 9116,
      "ĠJeudi": 9117,
      "appareil": 9118,
      "autoroute": 9119,
      "ĠbÃ©nÃ©ficier": 9120,
      "ĠÃ©levÃ©e": 9121,
      "uez": 9122,
      "onses": 9123,
      "Ġcycle": 9124,
      "Ġcroiss": 9125,
      "Ġcolonel": 9126,
      "ĠBab": 9127,
      "Ġdot": 9128,
      "ĠrelevÃ©": 9129,
      "cient": 9130,
      "Ġfraude": 9131,
      "ĠPoutine": 9132,
      "Ġmeu": 9133,
      "Ã¢ts": 9134,
      "ĠBÃ©": 9135,
      "Ġtraduit": 9136,
      "ĠsystÃ©": 9137,
      "histor": 9138,
      "Ġprincesse": 9139,
      "Ġcontinuent": 9140,
      "Ġroul": 9141,
      "Ġ1973": 9142,
      "itage": 9143,
      "iblement": 9144,
      "ĠQuelque": 9145,
      "Ġlongs": 9146,
      "Ġrevendi": 9147,
      "anterie": 9148,
      "Ġjeter": 9149,
      "ĠMohamed": 9150,
      "Ġ1972": 9151,
      "ried": 9152,
      "Ġsoule": 9153,
      "Ġcig": 9154,
      "ĠWeb": 9155,
      "encer": 9156,
      "Ã©ras": 9157,
      "Ġbancaire": 9158,
      "Ġadmi": 9159,
      "ĠVenez": 9160,
      "ĠrÃ©servÃ©": 9161,
      "ĠPatri": 9162,
      "endes": 9163,
      "ĠrÃ©pand": 9164,
      "exemple": 9165,
      "ĠRose": 9166,
      "Ġennemis": 9167,
[...]
